
#ifdef __has_attribute
#define HAVE_ATTRIBUTE(x) __has_attribute(x)
#else
#define HAVE_ATTRIBUTE(x) 0
#endif
#if HAVE_ATTRIBUTE(aligned) || (defined(__GNUC__) && !defined(__clang__))
#define DATA_ALIGN_ATTRIBUTE __attribute__((aligned(4)))
#else
#define DATA_ALIGN_ATTRIBUTE
#endif

const unsigned char Posture_Model[] = {
	0x1c, 0x00, 0x00, 0x00, 0x54, 0x46, 0x4c, 0x33, 0x14, 0x00, 0x20, 0x00, 
	0x1c, 0x00, 0x18, 0x00, 0x14, 0x00, 0x10, 0x00, 0x0c, 0x00, 0x00, 0x00, 
	0x08, 0x00, 0x04, 0x00, 0x14, 0x00, 0x00, 0x00, 0x1c, 0x00, 0x00, 0x00, 
	0x8c, 0x00, 0x00, 0x00, 0xe4, 0x00, 0x00, 0x00, 0x10, 0x30, 0x00, 0x00, 
	0x20, 0x30, 0x00, 0x00, 0xb4, 0x35, 0x00, 0x00, 0x03, 0x00, 0x00, 0x00, 
	0x01, 0x00, 0x00, 0x00, 0x04, 0x00, 0x00, 0x00, 0xa2, 0xcf, 0xff, 0xff, 
	0x0c, 0x00, 0x00, 0x00, 0x1c, 0x00, 0x00, 0x00, 0x3c, 0x00, 0x00, 0x00, 
	0x0f, 0x00, 0x00, 0x00, 0x73, 0x65, 0x72, 0x76, 0x69, 0x6e, 0x67, 0x5f, 
	0x64, 0x65, 0x66, 0x61, 0x75, 0x6c, 0x74, 0x00, 0x01, 0x00, 0x00, 0x00, 
	0x04, 0x00, 0x00, 0x00, 0x90, 0xff, 0xff, 0xff, 0x0a, 0x00, 0x00, 0x00, 
	0x04, 0x00, 0x00, 0x00, 0x08, 0x00, 0x00, 0x00, 0x6f, 0x75, 0x74, 0x70, 
	0x75, 0x74, 0x5f, 0x30, 0x00, 0x00, 0x00, 0x00, 0x01, 0x00, 0x00, 0x00, 
	0x04, 0x00, 0x00, 0x00, 0xf2, 0xd0, 0xff, 0xff, 0x04, 0x00, 0x00, 0x00, 
	0x0c, 0x00, 0x00, 0x00, 0x6b, 0x65, 0x72, 0x61, 0x73, 0x5f, 0x74, 0x65, 
	0x6e, 0x73, 0x6f, 0x72, 0x00, 0x00, 0x00, 0x00, 0x02, 0x00, 0x00, 0x00, 
	0x34, 0x00, 0x00, 0x00, 0x04, 0x00, 0x00, 0x00, 0xdc, 0xff, 0xff, 0xff, 
	0x0d, 0x00, 0x00, 0x00, 0x04, 0x00, 0x00, 0x00, 0x13, 0x00, 0x00, 0x00, 
	0x43, 0x4f, 0x4e, 0x56, 0x45, 0x52, 0x53, 0x49, 0x4f, 0x4e, 0x5f, 0x4d, 
	0x45, 0x54, 0x41, 0x44, 0x41, 0x54, 0x41, 0x00, 0x08, 0x00, 0x0c, 0x00, 
	0x08, 0x00, 0x04, 0x00, 0x08, 0x00, 0x00, 0x00, 0x0c, 0x00, 0x00, 0x00, 
	0x04, 0x00, 0x00, 0x00, 0x13, 0x00, 0x00, 0x00, 0x6d, 0x69, 0x6e, 0x5f, 
	0x72, 0x75, 0x6e, 0x74, 0x69, 0x6d, 0x65, 0x5f, 0x76, 0x65, 0x72, 0x73, 
	0x69, 0x6f, 0x6e, 0x00, 0x0e, 0x00, 0x00, 0x00, 0x28, 0x2f, 0x00, 0x00, 
	0x20, 0x2f, 0x00, 0x00, 0x90, 0x2e, 0x00, 0x00, 0x78, 0x0e, 0x00, 0x00, 
	0x64, 0x0e, 0x00, 0x00, 0xd4, 0x0d, 0x00, 0x00, 0xc4, 0x0c, 0x00, 0x00, 
	0xb4, 0x00, 0x00, 0x00, 0xac, 0x00, 0x00, 0x00, 0xa4, 0x00, 0x00, 0x00, 
	0x9c, 0x00, 0x00, 0x00, 0x94, 0x00, 0x00, 0x00, 0x74, 0x00, 0x00, 0x00, 
	0x04, 0x00, 0x00, 0x00, 0xa6, 0xd1, 0xff, 0xff, 0x04, 0x00, 0x00, 0x00, 
	0x60, 0x00, 0x00, 0x00, 0x10, 0x00, 0x00, 0x00, 0x00, 0x00, 0x00, 0x00, 
	0x08, 0x00, 0x0e, 0x00, 0x08, 0x00, 0x04, 0x00, 0x08, 0x00, 0x00, 0x00, 
	0x10, 0x00, 0x00, 0x00, 0x24, 0x00, 0x00, 0x00, 0x00, 0x00, 0x06, 0x00, 
	0x08, 0x00, 0x04, 0x00, 0x06, 0x00, 0x00, 0x00, 0x04, 0x00, 0x00, 0x00, 
	0x00, 0x00, 0x00, 0x00, 0x0c, 0x00, 0x18, 0x00, 0x14, 0x00, 0x10, 0x00, 
	0x0c, 0x00, 0x04, 0x00, 0x0c, 0x00, 0x00, 0x00, 0x23, 0x17, 0xa3, 0x55, 
	0x83, 0x11, 0x52, 0xf3, 0x02, 0x00, 0x00, 0x00, 0x02, 0x00, 0x00, 0x00, 
	0x04, 0x00, 0x00, 0x00, 0x06, 0x00, 0x00, 0x00, 0x32, 0x2e, 0x31, 0x39, 
	0x2e, 0x30, 0x00, 0x00, 0x12, 0xd2, 0xff, 0xff, 0x04, 0x00, 0x00, 0x00, 
	0x10, 0x00, 0x00, 0x00, 0x31, 0x2e, 0x31, 0x34, 0x2e, 0x30, 0x00, 0x00, 
	0x00, 0x00, 0x00, 0x00, 0x00, 0x00, 0x00, 0x00, 0x20, 0xcc, 0xff, 0xff, 
	0x24, 0xcc, 0xff, 0xff, 0x28, 0xcc, 0xff, 0xff, 0x2c, 0xcc, 0xff, 0xff, 
	0x3e, 0xd2, 0xff, 0xff, 0x04, 0x00, 0x00, 0x00, 0x00, 0x0c, 0x00, 0x00, 
	0x1a, 0xa6, 0x3c, 0xbe, 0xe9, 0x3c, 0xa3, 0xbe, 0xc2, 0xee, 0xb6, 0x3d, 
	0x01, 0x3d, 0x4c, 0xbe, 0x21, 0x44, 0x5e, 0xbe, 0xe1, 0xbc, 0x97, 0x3c, 
	0x9d, 0x68, 0x8e, 0xbe, 0x89, 0x47, 0xb0, 0x3e, 0x7f, 0xaa, 0x27, 0xbe, 
	0x55, 0x33, 0x29, 0x3d, 0xa2, 0xf4, 0xdf, 0x3d, 0x2a, 0x93, 0x72, 0x3a, 
	0xb1, 0x1c, 0xbb, 0x3d, 0xe3, 0x65, 0xbe, 0x3e, 0xcb, 0xad, 0x4b, 0xbd, 
	0xe5, 0x8e, 0x12, 0xbf, 0x55, 0xd4, 0x87, 0x3e, 0xbe, 0x3b, 0x5f, 0x3e, 
	0x01, 0x3b, 0xee, 0x3d, 0x01, 0x67, 0x75, 0x3e, 0xed, 0xc6, 0x97, 0xbe, 
	0xe9, 0x39, 0x41, 0xbe, 0x2e, 0x59, 0x0b, 0x3e, 0x37, 0x2d, 0x5b, 0x3d, 
	0xe3, 0x18, 0x8d, 0x3e, 0x8e, 0x64, 0xc1, 0xbe, 0x67, 0x82, 0x98, 0xbe, 
	0x6a, 0x2c, 0x0d, 0x3e, 0x72, 0xe8, 0x91, 0xbd, 0x55, 0x02, 0x6f, 0xbe, 
	0x3d, 0x6d, 0x61, 0xbe, 0xb4, 0x44, 0x2d, 0x3e, 0x69, 0xd6, 0x37, 0x3e, 
	0xb4, 0xcd, 0x30, 0x3e, 0x33, 0xb6, 0x72, 0xbd, 0x68, 0x76, 0x35, 0x3e, 
	0xff, 0xf6, 0x9a, 0xbe, 0x8d, 0x92, 0xdd, 0xbe, 0x18, 0xf2, 0x08, 0x3e, 
	0x02, 0x87, 0xd8, 0x3d, 0xf0, 0xd9, 0x8e, 0xbe, 0x93, 0x95, 0x84, 0xbe, 
	0xd5, 0x63, 0xc7, 0x3d, 0x7a, 0xdb, 0x6e, 0xbe, 0x8a, 0xd7, 0xfe, 0xbc, 
	0xf8, 0x69, 0xaa, 0xbd, 0x1a, 0xb7, 0xda, 0xbd, 0xe0, 0x33, 0x88, 0xbe, 
	0x87, 0xa6, 0xba, 0x3e, 0xc7, 0x02, 0xd6, 0x3c, 0x88, 0x43, 0x6c, 0xbe, 
	0x9b, 0x93, 0xf6, 0xbe, 0x8c, 0x25, 0xa8, 0xbe, 0x8f, 0xe5, 0x94, 0xbe, 
	0xf9, 0x22, 0x8b, 0xbe, 0x64, 0x53, 0x21, 0x3e, 0x62, 0x06, 0x26, 0x3e, 
	0xe8, 0x58, 0x1c, 0x3e, 0x6a, 0x78, 0xe6, 0xbd, 0x69, 0xd3, 0x49, 0xbe, 
	0x14, 0x1f, 0x32, 0xbc, 0x31, 0xff, 0xc5, 0xbd, 0xc9, 0xac, 0xc4, 0xbe, 
	0xd7, 0xb7, 0x3b, 0x3d, 0x0a, 0x71, 0x34, 0x3d, 0xfb, 0x7a, 0x76, 0x3e, 
	0x05, 0x93, 0xe0, 0x3c, 0x21, 0xf1, 0x16, 0x3d, 0x7f, 0xe3, 0x55, 0x3e, 
	0xe4, 0xba, 0xca, 0x3d, 0x0d, 0x0d, 0x2d, 0xbe, 0x92, 0x89, 0x9a, 0xbe, 
	0xe9, 0x69, 0x64, 0xbe, 0x38, 0x20, 0x44, 0x3e, 0xf5, 0xfa, 0x17, 0x3e, 
	0xaf, 0x9c, 0x81, 0xbe, 0xd0, 0x0b, 0x26, 0x3f, 0x50, 0x90, 0xc1, 0xbe, 
	0x4c, 0xc0, 0x69, 0xbd, 0xd7, 0xfb, 0xb5, 0xbd, 0x0b, 0x4c, 0xbf, 0xbd, 
	0xf8, 0xee, 0x83, 0xbd, 0x53, 0xe7, 0x29, 0xbc, 0x87, 0x4e, 0x16, 0xbd, 
	0xc4, 0xc6, 0x89, 0x3e, 0xde, 0x81, 0x65, 0xbe, 0x45, 0x2a, 0x8b, 0xbe, 
	0x17, 0xc9, 0x36, 0xbf, 0x8f, 0x35, 0x92, 0xbe, 0x26, 0xd4, 0x97, 0xbe, 
	0x21, 0x39, 0x9a, 0xbc, 0x93, 0x43, 0x26, 0xbe, 0x06, 0xc9, 0x06, 0x3e, 
	0x4e, 0xc5, 0x3c, 0xbd, 0x83, 0x13, 0xe5, 0x3d, 0x2e, 0xa8, 0xda, 0xbd, 
	0x60, 0x99, 0xa4, 0xbe, 0x49, 0x17, 0x7f, 0xbe, 0xa3, 0x8e, 0xe8, 0x3d, 
	0x71, 0xb2, 0x08, 0x3e, 0x87, 0xde, 0xcc, 0xbe, 0x15, 0x20, 0x31, 0xbe, 
	0xbb, 0x48, 0x00, 0x3e, 0xa6, 0x31, 0x22, 0xbe, 0xc8, 0xd9, 0x26, 0xbe, 
	0xb2, 0x86, 0xc6, 0x3d, 0xa5, 0x0f, 0xeb, 0x3c, 0xab, 0x5d, 0x0a, 0x3e, 
	0xbc, 0xc7, 0x7e, 0xbe, 0x26, 0x2c, 0xba, 0xbe, 0xe4, 0x6b, 0x65, 0x3e, 
	0x9d, 0x6f, 0xbc, 0xbe, 0x71, 0xf2, 0x43, 0xbe, 0x20, 0x02, 0xe0, 0xbe, 
	0x89, 0x7f, 0x34, 0x3d, 0xc3, 0xcb, 0x9c, 0xbd, 0xdb, 0xaa, 0x58, 0xbd, 
	0x6a, 0x69, 0x90, 0xbe, 0x58, 0xe4, 0xa3, 0x3d, 0xe9, 0xfd, 0xe9, 0xbd, 
	0xdd, 0xd1, 0x8d, 0x3e, 0x4a, 0xd2, 0x89, 0xbe, 0xa7, 0x9f, 0x5d, 0x3e, 
	0x40, 0x79, 0xf8, 0xbd, 0x62, 0x46, 0xc7, 0x3e, 0x3e, 0x5c, 0xf7, 0x3e, 
	0x80, 0xf4, 0x2d, 0x3e, 0x5d, 0xad, 0xf8, 0xbd, 0x01, 0x9b, 0x0e, 0xbe, 
	0x0f, 0x89, 0x97, 0x3d, 0xfc, 0x79, 0xfd, 0x3d, 0xfc, 0x5f, 0x4b, 0x3e, 
	0x93, 0x6c, 0x10, 0xbe, 0x57, 0x78, 0x91, 0x3d, 0x8b, 0xdd, 0xd4, 0xbe, 
	0x2b, 0x1a, 0x1d, 0xbf, 0xde, 0xff, 0xce, 0x3e, 0x19, 0x2d, 0x27, 0xbe, 
	0x27, 0xc6, 0xa5, 0xbd, 0xa8, 0x6c, 0x72, 0xbd, 0x39, 0x68, 0xff, 0x3d, 
	0x6b, 0x75, 0xb7, 0xbd, 0x03, 0xf4, 0x6d, 0xbc, 0x90, 0x71, 0x6b, 0x3e, 
	0xfe, 0xd7, 0x5b, 0x3e, 0xf2, 0x40, 0x25, 0x3f, 0x8e, 0x7b, 0x77, 0x3e, 
	0x66, 0xac, 0xda, 0x3e, 0x0d, 0xe5, 0x04, 0x3f, 0x7f, 0x65, 0xc8, 0xbc, 
	0xc2, 0x43, 0xdb, 0x3c, 0x23, 0x4c, 0x6f, 0xbe, 0xec, 0x42, 0x86, 0x3e, 
	0x90, 0xbe, 0x81, 0xbc, 0xe3, 0x50, 0x4c, 0xbd, 0x2a, 0x45, 0xf9, 0x3c, 
	0xcb, 0xbf, 0x15, 0xbc, 0xb3, 0x62, 0x40, 0xbe, 0x51, 0xe1, 0x3c, 0x3f, 
	0x71, 0x30, 0x1c, 0x3e, 0xd7, 0x12, 0x3d, 0x3e, 0x85, 0xf2, 0x80, 0x3e, 
	0xd4, 0xbb, 0x36, 0xbe, 0x4e, 0x75, 0xdb, 0xbd, 0x10, 0x77, 0x28, 0x3c, 
	0x9c, 0x7c, 0x27, 0x3d, 0x79, 0x37, 0x37, 0xbd, 0x8f, 0x63, 0x84, 0xbd, 
	0xfc, 0x36, 0xa6, 0x3e, 0xdd, 0x77, 0x10, 0x3f, 0x6d, 0xf4, 0xb1, 0x3e, 
	0x44, 0x1d, 0x28, 0x3e, 0x34, 0x3f, 0xe1, 0x3e, 0xf4, 0xce, 0xa5, 0x3d, 
	0x5d, 0x9d, 0x3d, 0xbe, 0x3d, 0x73, 0xa3, 0x3e, 0x3c, 0x66, 0x44, 0xbe, 
	0x40, 0x47, 0x22, 0x3e, 0x62, 0x23, 0x2b, 0xbe, 0xeb, 0xcd, 0xc9, 0x3d, 
	0xb1, 0x40, 0x37, 0xbd, 0x69, 0xca, 0xa3, 0xbe, 0x14, 0x18, 0xd7, 0xbb, 
	0x2b, 0x90, 0x57, 0xbe, 0xa4, 0xd4, 0xf3, 0xbd, 0xe1, 0x24, 0x0c, 0x3e, 
	0x60, 0x20, 0x5a, 0x3e, 0x77, 0x50, 0xe1, 0x3d, 0xb6, 0x5c, 0xa7, 0xbd, 
	0x20, 0x97, 0x9e, 0x3d, 0x39, 0xf9, 0x8b, 0x3d, 0x5b, 0xb5, 0x0b, 0x3e, 
	0xea, 0x1a, 0xfc, 0xbe, 0x39, 0xf1, 0xfa, 0xbe, 0x2b, 0x49, 0x57, 0xbe, 
	0xab, 0x5e, 0x9f, 0xbe, 0x4b, 0x68, 0x1d, 0xbe, 0x58, 0x42, 0x36, 0xbd, 
	0xf4, 0x2b, 0xfc, 0x3d, 0xef, 0x86, 0x12, 0x3e, 0xa9, 0x96, 0x6f, 0x3e, 
	0x83, 0x97, 0x0c, 0x3e, 0x54, 0x71, 0x2f, 0x3e, 0x28, 0x5b, 0x80, 0xbe, 
	0x22, 0xe1, 0x01, 0xbe, 0x77, 0xe3, 0xd0, 0xbe, 0x42, 0x1b, 0x05, 0x3d, 
	0x5e, 0x7f, 0xa7, 0xbe, 0xdf, 0x07, 0xd0, 0xbd, 0xc4, 0x8d, 0x8d, 0xbe, 
	0x01, 0x3a, 0x71, 0xbe, 0xfb, 0xd2, 0x95, 0x3e, 0x8e, 0x20, 0xb2, 0xbd, 
	0x4f, 0x84, 0x89, 0x3e, 0xa1, 0xa0, 0x24, 0xbe, 0x3f, 0xc0, 0x04, 0xbe, 
	0x12, 0x88, 0x13, 0x3d, 0x35, 0x91, 0xdf, 0xbe, 0xd9, 0x14, 0x07, 0xbe, 
	0xa7, 0x83, 0x08, 0xbd, 0xd0, 0x17, 0x4d, 0xbe, 0xb6, 0x05, 0x28, 0xbc, 
	0xa1, 0x3d, 0x2f, 0xbe, 0xd1, 0x7e, 0x58, 0xbd, 0x1e, 0x9e, 0xf5, 0x3c, 
	0x2f, 0xf9, 0xd9, 0xbd, 0x33, 0x45, 0xfd, 0xbb, 0xc2, 0x43, 0xd5, 0xbd, 
	0x12, 0x41, 0x4a, 0x3e, 0x38, 0xcb, 0x45, 0x3e, 0x5c, 0xaa, 0x08, 0xbe, 
	0xe7, 0x1a, 0x5d, 0x3e, 0x27, 0x10, 0x65, 0xbd, 0x53, 0x3e, 0xcd, 0x3d, 
	0x2e, 0xa4, 0x18, 0x3e, 0x54, 0xb6, 0xfb, 0x3d, 0x74, 0xc1, 0xe3, 0xbd, 
	0x66, 0x80, 0x2c, 0x3d, 0xbe, 0x30, 0xac, 0x3e, 0x7a, 0x4d, 0xa1, 0x3d, 
	0x30, 0xba, 0x9a, 0x3e, 0x25, 0x10, 0x0a, 0x3e, 0x69, 0x34, 0x59, 0xbe, 
	0x68, 0xbf, 0xe6, 0xbd, 0x67, 0xf5, 0x1a, 0x3e, 0xc0, 0xf6, 0x94, 0xbe, 
	0x73, 0xc8, 0x29, 0x3e, 0x1a, 0xdd, 0xa5, 0x3d, 0x4c, 0x6c, 0xfb, 0xbd, 
	0x85, 0x47, 0xb5, 0x3e, 0x73, 0x88, 0x17, 0x3e, 0x28, 0x8a, 0x45, 0x3e, 
	0x4c, 0xe9, 0x7f, 0xbe, 0xa7, 0x3d, 0x1d, 0xbf, 0x10, 0xe3, 0x09, 0xbe, 
	0x1a, 0x8a, 0x92, 0x3e, 0x77, 0x93, 0xf5, 0x39, 0x1c, 0xb1, 0x30, 0xbf, 
	0xd0, 0xdc, 0x91, 0x3d, 0x42, 0x47, 0x37, 0xbe, 0x49, 0x52, 0x87, 0xbe, 
	0x31, 0xa9, 0xe5, 0xbd, 0xc7, 0x52, 0xfc, 0x3c, 0xf5, 0x90, 0x4b, 0x3d, 
	0xc0, 0x79, 0x83, 0xbe, 0x27, 0x97, 0x38, 0xbf, 0x8c, 0x36, 0x0e, 0x3f, 
	0xe9, 0x89, 0x8c, 0xbe, 0x42, 0xee, 0x83, 0xbd, 0xd8, 0xa7, 0x4a, 0xbe, 
	0x0f, 0xd8, 0x22, 0xbe, 0xd0, 0xc5, 0x30, 0x3e, 0x6f, 0x5c, 0x67, 0x3e, 
	0x24, 0x31, 0x83, 0x3d, 0x16, 0x03, 0x0e, 0xbe, 0x0c, 0x05, 0x47, 0x3e, 
	0xd1, 0x31, 0x91, 0x3e, 0xab, 0xa6, 0xf8, 0x3d, 0x80, 0xed, 0x03, 0xbe, 
	0x5a, 0x60, 0xb3, 0x3d, 0x85, 0x8f, 0x00, 0x3d, 0xcb, 0xb3, 0x46, 0x3d, 
	0xbb, 0x95, 0xf3, 0x39, 0x0c, 0x6c, 0x8a, 0xbe, 0x05, 0x90, 0x46, 0x3e, 
	0xbd, 0xd9, 0x8b, 0x3e, 0x51, 0xc8, 0x0a, 0xbd, 0xdf, 0xe4, 0xe2, 0x3e, 
	0xdf, 0x1b, 0xc1, 0xbe, 0xa9, 0x0e, 0x72, 0x3d, 0xbf, 0xe1, 0x33, 0x3f, 
	0xab, 0xed, 0x8b, 0x3e, 0x9a, 0x14, 0x9c, 0x3e, 0x1d, 0xdf, 0x99, 0x3e, 
	0xfe, 0x25, 0xa9, 0xbd, 0xe4, 0xe5, 0x0d, 0xbd, 0xc2, 0xdc, 0xa5, 0x3d, 
	0x80, 0x2a, 0x76, 0x3d, 0x93, 0xb1, 0xe1, 0x3c, 0xc9, 0x84, 0x4d, 0xbd, 
	0x37, 0x93, 0x9c, 0x3d, 0x41, 0x5f, 0x98, 0xbd, 0x14, 0x7c, 0x0a, 0xbf, 
	0x1c, 0x33, 0xcc, 0xbd, 0x65, 0x82, 0x9f, 0xbe, 0x31, 0x32, 0xc3, 0xbd, 
	0x1e, 0x65, 0xb7, 0xbc, 0xa3, 0x2c, 0xe2, 0xbd, 0xbc, 0x16, 0x73, 0xbe, 
	0x59, 0xfc, 0x76, 0x3e, 0x85, 0x2b, 0xb9, 0xbc, 0x3d, 0x74, 0x3f, 0x3e, 
	0x96, 0x64, 0x06, 0x3e, 0x4c, 0xef, 0x7d, 0x3e, 0x14, 0x43, 0x2d, 0x3e, 
	0xeb, 0xb7, 0xb5, 0xbe, 0x75, 0xaf, 0xb1, 0x3e, 0x98, 0x15, 0x88, 0x3d, 
	0x31, 0x38, 0x91, 0x3d, 0x82, 0x12, 0x60, 0xbd, 0x54, 0x98, 0x13, 0x3d, 
	0x12, 0x54, 0xdb, 0x3d, 0xd6, 0x37, 0x37, 0xbe, 0x10, 0x69, 0x00, 0xbe, 
	0x59, 0xca, 0x38, 0x3e, 0x42, 0x85, 0xb0, 0xbe, 0xc8, 0xa0, 0xdf, 0xbd, 
	0x9f, 0x59, 0x6a, 0x3e, 0x87, 0x00, 0xb2, 0x3e, 0x20, 0xdd, 0x1a, 0x3f, 
	0x8b, 0x8b, 0x85, 0x3d, 0x45, 0x9e, 0xee, 0xbc, 0x14, 0x0a, 0x65, 0x3d, 
	0x0c, 0x97, 0x0e, 0xba, 0xcb, 0x1b, 0xdc, 0xbc, 0x7c, 0xb8, 0x6a, 0xbd, 
	0xf2, 0x97, 0x99, 0xbd, 0xaa, 0x9e, 0x1e, 0x3f, 0x18, 0xd0, 0x4e, 0xbe, 
	0xfb, 0xb0, 0xea, 0xbe, 0xd4, 0xe7, 0xdb, 0x3e, 0x4a, 0xf9, 0x69, 0xbe, 
	0x8b, 0xea, 0x6e, 0x3e, 0x6f, 0xd9, 0x25, 0x3e, 0x2e, 0x75, 0xfc, 0xbd, 
	0xb6, 0xd8, 0xc9, 0x3d, 0xe4, 0x37, 0xaa, 0x3d, 0x28, 0xb3, 0x81, 0x3d, 
	0x14, 0xa6, 0x02, 0x3d, 0x10, 0xda, 0x0f, 0x3f, 0xbb, 0x27, 0x8d, 0x3e, 
	0xda, 0xed, 0xf5, 0xbd, 0x29, 0x54, 0x62, 0x3e, 0x62, 0xac, 0x98, 0xbc, 
	0x62, 0x62, 0xd0, 0xbc, 0x90, 0xa0, 0x2c, 0xbe, 0x50, 0x5e, 0x77, 0x3e, 
	0x10, 0xeb, 0x47, 0x3d, 0x1b, 0x84, 0x54, 0x3d, 0x85, 0x67, 0x0c, 0xbe, 
	0x5d, 0x86, 0x4f, 0xbe, 0x6c, 0xfd, 0x37, 0xbe, 0x88, 0x12, 0xb0, 0x3e, 
	0x95, 0xb8, 0xf9, 0xbe, 0x09, 0xd6, 0x24, 0xbe, 0x60, 0x28, 0x86, 0xbe, 
	0x13, 0x76, 0x4a, 0x3e, 0x11, 0x91, 0x64, 0xbd, 0xd0, 0x5e, 0x7c, 0x3d, 
	0x88, 0x08, 0xb3, 0xbd, 0x0a, 0x4a, 0x97, 0xbe, 0xc2, 0x53, 0xb4, 0x3e, 
	0x1c, 0x40, 0xc7, 0xbe, 0xb2, 0xce, 0x1a, 0xbf, 0x46, 0x99, 0x0d, 0x3e, 
	0xa7, 0xc5, 0xc1, 0x3d, 0xd4, 0x9c, 0xd2, 0xbe, 0x61, 0x6f, 0xa3, 0xbe, 
	0x82, 0x76, 0x77, 0xbd, 0x24, 0x06, 0x96, 0xbe, 0x2e, 0x7e, 0x27, 0xbe, 
	0x06, 0x60, 0x97, 0xbe, 0xd5, 0xfd, 0x05, 0x3e, 0x40, 0x50, 0x83, 0xbd, 
	0x67, 0xea, 0x3a, 0x3e, 0x59, 0x69, 0x84, 0x3e, 0x26, 0x33, 0x90, 0xbd, 
	0x9e, 0x4e, 0x89, 0xbd, 0xa6, 0x2f, 0xe7, 0xbc, 0x9a, 0xd9, 0xb2, 0x3e, 
	0xe5, 0xc7, 0x07, 0x3b, 0xa9, 0x79, 0x04, 0xbe, 0xf8, 0x3e, 0x72, 0xbc, 
	0x89, 0x9d, 0x43, 0x3e, 0x30, 0x83, 0x38, 0x3e, 0x5f, 0x03, 0x81, 0xbe, 
	0x35, 0x88, 0x47, 0xbd, 0xbe, 0x52, 0x81, 0x3b, 0x09, 0x9f, 0x51, 0xbd, 
	0x66, 0x87, 0xb5, 0x3e, 0xdb, 0xf7, 0x82, 0x3e, 0xc0, 0xae, 0xa4, 0x3e, 
	0xc2, 0x83, 0x83, 0x3d, 0x34, 0xf1, 0xb1, 0x3d, 0xb6, 0x29, 0xee, 0x3e, 
	0x6b, 0xde, 0x74, 0xbe, 0xa6, 0xc6, 0x0e, 0x3e, 0x8f, 0x88, 0x04, 0xbd, 
	0x56, 0xd5, 0xfa, 0x3d, 0xa4, 0x0d, 0x2f, 0x3e, 0xfd, 0x62, 0xfa, 0xbd, 
	0xc6, 0x70, 0x3e, 0xbe, 0x74, 0x95, 0xdf, 0xbc, 0xbc, 0x97, 0xa3, 0xbb, 
	0x3e, 0x21, 0xd7, 0xbe, 0xd8, 0x9f, 0x07, 0xbe, 0xd7, 0xa5, 0xff, 0x3d, 
	0x42, 0x53, 0xd8, 0xbe, 0x35, 0xe0, 0x45, 0xbd, 0x74, 0x90, 0x7b, 0xbe, 
	0x96, 0x74, 0xd2, 0xbd, 0xd0, 0xcd, 0x37, 0x3e, 0xb8, 0x68, 0x1a, 0x3f, 
	0x14, 0xf3, 0xa0, 0x3e, 0xf3, 0x13, 0x83, 0xbe, 0x1a, 0x13, 0x35, 0x3d, 
	0x57, 0x69, 0x91, 0xbe, 0x49, 0x3e, 0x63, 0xbd, 0x44, 0x2b, 0x14, 0x3e, 
	0x14, 0x75, 0xb3, 0xbd, 0x9f, 0x7b, 0xfb, 0x3d, 0x70, 0x55, 0x85, 0xbe, 
	0x28, 0xf7, 0x41, 0x3e, 0xde, 0xee, 0xcc, 0x3d, 0x40, 0x2d, 0xc7, 0x3e, 
	0xd3, 0x96, 0x75, 0x3e, 0x73, 0xce, 0xa9, 0xbe, 0x32, 0x86, 0xf6, 0x3d, 
	0x09, 0xf7, 0x0c, 0xbe, 0x50, 0x9e, 0x38, 0x3c, 0xd1, 0x45, 0xce, 0xbd, 
	0x5c, 0x7f, 0xda, 0x3d, 0x36, 0xf0, 0x60, 0xbd, 0xbf, 0x45, 0x36, 0xbd, 
	0x41, 0xc3, 0x02, 0x3e, 0xa8, 0xee, 0x01, 0x3f, 0x05, 0xa9, 0xc3, 0x3e, 
	0x6e, 0x90, 0x8f, 0x3e, 0x02, 0x90, 0xa5, 0xbe, 0xab, 0x0d, 0x42, 0xbb, 
	0x2d, 0x31, 0x58, 0x3e, 0x69, 0x69, 0x0e, 0x3e, 0x4a, 0x99, 0x17, 0xbe, 
	0x46, 0xb7, 0x73, 0x3e, 0xbd, 0xc8, 0x08, 0xbd, 0x0a, 0x08, 0x90, 0xbd, 
	0x0a, 0xd3, 0xc1, 0xbe, 0x86, 0x2f, 0xbb, 0x3e, 0xd1, 0xce, 0x85, 0x3e, 
	0x4b, 0x53, 0x1a, 0x3e, 0xaa, 0xfe, 0x36, 0xbe, 0xc5, 0xaf, 0x5f, 0xbe, 
	0x07, 0xa0, 0x07, 0xbe, 0x4d, 0x27, 0x61, 0xbe, 0x11, 0xa9, 0x3c, 0x3e, 
	0x56, 0x3a, 0x24, 0xbe, 0x36, 0xfa, 0x97, 0xbe, 0x9f, 0x73, 0x92, 0x3e, 
	0x2f, 0x32, 0x34, 0x3e, 0x1d, 0x3f, 0x60, 0xbe, 0x5f, 0x3a, 0xac, 0xbe, 
	0x4d, 0xb6, 0x03, 0xbf, 0x3f, 0x7d, 0x0d, 0xbf, 0x02, 0xa2, 0x30, 0xbe, 
	0x1f, 0x7c, 0x03, 0x3d, 0xdc, 0xba, 0xfd, 0x3d, 0x7a, 0xed, 0x37, 0x3e, 
	0x91, 0x62, 0x03, 0xbe, 0x45, 0x18, 0xdc, 0xbd, 0xef, 0x3b, 0xdb, 0x3d, 
	0x23, 0x09, 0x13, 0xbf, 0xd9, 0x0d, 0xea, 0xbe, 0x5a, 0x6f, 0xc0, 0xbd, 
	0x80, 0x01, 0x35, 0x3c, 0x99, 0x72, 0xe2, 0xbe, 0x8c, 0x05, 0x2b, 0xbe, 
	0xe0, 0xff, 0xe8, 0x3c, 0x69, 0xb8, 0x3f, 0x3d, 0x02, 0xe7, 0x2a, 0x3e, 
	0x6b, 0xb9, 0x31, 0x3e, 0x2c, 0x2d, 0x80, 0x3d, 0x04, 0x8c, 0x69, 0x3e, 
	0x57, 0xfc, 0xf9, 0xbe, 0x06, 0x4f, 0xa7, 0xbe, 0xb2, 0x59, 0x76, 0x3e, 
	0x24, 0xa1, 0xb7, 0x3c, 0x9b, 0xf9, 0x83, 0xbe, 0xdc, 0x2b, 0x86, 0xbe, 
	0x96, 0x72, 0x85, 0xbe, 0xdd, 0xd4, 0xa8, 0x3e, 0x44, 0xba, 0x57, 0x3e, 
	0x44, 0x38, 0x43, 0xbe, 0x32, 0xc8, 0x6e, 0xbd, 0x79, 0xec, 0xa5, 0xbd, 
	0x0a, 0x6a, 0xce, 0x3e, 0xd5, 0x50, 0x9d, 0xbe, 0xc9, 0x6d, 0x1e, 0xbe, 
	0xb6, 0xd4, 0x4b, 0xbd, 0x41, 0x24, 0x5d, 0xbe, 0xea, 0x58, 0x80, 0x3e, 
	0xce, 0x4c, 0x5f, 0xbe, 0x4f, 0x47, 0xfc, 0x3d, 0x24, 0xd4, 0x11, 0xbd, 
	0xb9, 0x5e, 0x23, 0xbe, 0xf7, 0x11, 0x11, 0xbd, 0xae, 0xf1, 0x90, 0xbb, 
	0x1c, 0x5d, 0x1c, 0xbe, 0xa1, 0x7a, 0xb0, 0xbe, 0x53, 0x9a, 0x02, 0xbe, 
	0x09, 0xc0, 0x67, 0xbe, 0xe2, 0x21, 0x85, 0x3e, 0xa1, 0xa7, 0x64, 0x3d, 
	0x44, 0xa8, 0xd8, 0x3d, 0xd5, 0xc8, 0x2f, 0x3e, 0x54, 0xea, 0x29, 0xbe, 
	0x54, 0xd4, 0x49, 0x3e, 0xdf, 0x6d, 0x8f, 0xbd, 0xb7, 0x4f, 0x30, 0xbe, 
	0x33, 0x30, 0xf6, 0x3d, 0xdb, 0x7e, 0xd5, 0xbe, 0x35, 0x54, 0x78, 0x3c, 
	0xf2, 0x2b, 0xf5, 0x3e, 0x9d, 0xaa, 0x93, 0xbe, 0x2c, 0x82, 0x67, 0xbe, 
	0x55, 0x58, 0x0d, 0x3e, 0xc4, 0x50, 0x5e, 0x3e, 0x66, 0x63, 0xab, 0x3d, 
	0x39, 0xfd, 0x14, 0xbd, 0x10, 0x4e, 0xb2, 0x3d, 0xc2, 0x18, 0xe4, 0x3d, 
	0xe5, 0xc1, 0x1f, 0xbf, 0x06, 0xa6, 0x2d, 0x3e, 0x51, 0xbb, 0x8e, 0x3d, 
	0xcf, 0xd9, 0xdb, 0xbd, 0x98, 0xdb, 0xd4, 0x3e, 0x6d, 0x02, 0x8c, 0xbe, 
	0xb5, 0x3b, 0x26, 0xbd, 0x83, 0xa4, 0x03, 0xbd, 0x25, 0xdf, 0x82, 0x3d, 
	0x8d, 0x9b, 0xef, 0x3d, 0x9f, 0xa9, 0xa7, 0x3d, 0x3e, 0x7c, 0xba, 0xbc, 
	0x3f, 0xde, 0xc5, 0xbd, 0xa2, 0xc2, 0x89, 0xbc, 0x3a, 0x8f, 0x95, 0x3d, 
	0xe4, 0x48, 0x51, 0xbe, 0x21, 0x6c, 0xac, 0xbe, 0x95, 0xa6, 0x77, 0xbe, 
	0x06, 0x42, 0xe1, 0xbd, 0x30, 0x34, 0x22, 0x3d, 0xed, 0x63, 0x85, 0x3e, 
	0x6c, 0x66, 0x0e, 0xbe, 0x6c, 0x4d, 0x94, 0x3d, 0x91, 0xb8, 0xb6, 0xbe, 
	0x3a, 0xe4, 0x45, 0x3e, 0xc5, 0x2a, 0xbf, 0xbd, 0x4f, 0x80, 0xfd, 0x3d, 
	0x70, 0xb0, 0x30, 0xbe, 0xc5, 0x3d, 0x20, 0xbe, 0x63, 0xf5, 0x19, 0x3e, 
	0x09, 0x57, 0x91, 0x3d, 0xc4, 0x86, 0x0b, 0x3e, 0xc7, 0x58, 0x8b, 0xbd, 
	0x2e, 0x9b, 0x83, 0x3d, 0x2e, 0x6c, 0x1d, 0x3d, 0x62, 0xf8, 0x19, 0x3e, 
	0x34, 0xea, 0xec, 0xbe, 0xbd, 0x61, 0x8e, 0x3e, 0x06, 0x0e, 0x23, 0xbd, 
	0xb9, 0xbd, 0xb1, 0xbe, 0x92, 0x08, 0x31, 0x3d, 0x8c, 0x14, 0xbd, 0x3d, 
	0xa0, 0xeb, 0x68, 0xbd, 0x89, 0x0a, 0x01, 0x3e, 0x06, 0x81, 0x3c, 0x3e, 
	0xa3, 0xce, 0xc3, 0xbd, 0x37, 0xcb, 0x79, 0xbe, 0x10, 0x9d, 0xa9, 0xbe, 
	0xca, 0x85, 0x66, 0xbe, 0xa0, 0x56, 0x13, 0xbe, 0x29, 0x77, 0xea, 0x3d, 
	0xc0, 0xd3, 0xed, 0xbd, 0x40, 0x1d, 0x9a, 0xbe, 0xa5, 0xaf, 0x87, 0xbe, 
	0xef, 0x71, 0x70, 0x3c, 0xb5, 0x07, 0x96, 0x3e, 0xd7, 0x7b, 0x58, 0xbe, 
	0x61, 0xee, 0x64, 0xbe, 0x1b, 0x62, 0x08, 0x3d, 0x06, 0xca, 0x16, 0x3e, 
	0xc2, 0x8d, 0x77, 0xbe, 0x4f, 0x8c, 0xb3, 0x3e, 0x3b, 0x09, 0x80, 0x3e, 
	0x65, 0x76, 0x21, 0xbe, 0x41, 0x8b, 0x1e, 0x3f, 0x5b, 0x1f, 0x91, 0xbe, 
	0x47, 0x37, 0x39, 0x3d, 0x29, 0x45, 0x82, 0xbc, 0xef, 0x41, 0xfc, 0xbd, 
	0x76, 0x1e, 0x27, 0x3e, 0xe6, 0x32, 0x1a, 0xbe, 0x5d, 0x8a, 0x6b, 0x3b, 
	0x24, 0x10, 0x97, 0xbc, 0xcc, 0xe5, 0x3c, 0xbe, 0xe4, 0x08, 0x74, 0x3d, 
	0xfb, 0x5a, 0x84, 0xbe, 0xef, 0xca, 0x58, 0xbe, 0x59, 0x3c, 0x07, 0xbd, 
	0xe9, 0x1a, 0x8f, 0x3e, 0xf7, 0xc4, 0xf1, 0xbd, 0xfa, 0x2e, 0x6c, 0x3e, 
	0x29, 0x67, 0xa2, 0x3e, 0x47, 0xde, 0xb2, 0xbd, 0x1a, 0xe7, 0x8f, 0xbe, 
	0x70, 0x0f, 0x16, 0x3d, 0xc4, 0x6d, 0xd5, 0xbc, 0x42, 0x25, 0x51, 0x3c, 
	0xf4, 0x8b, 0xd7, 0x3d, 0x1f, 0xae, 0x9d, 0x3e, 0x35, 0x2c, 0x43, 0x3e, 
	0x44, 0x46, 0x88, 0xbd, 0x06, 0x89, 0xca, 0xbe, 0x53, 0x00, 0x79, 0xbe, 
	0x22, 0xec, 0x6a, 0x3e, 0x8c, 0x7d, 0x57, 0xbd, 0xbe, 0x6e, 0x80, 0x3e, 
	0x85, 0x3d, 0x26, 0x3e, 0x84, 0x27, 0xb6, 0xbe, 0x0a, 0xd7, 0xb4, 0x3d, 
	0xf2, 0x4c, 0xac, 0x3e, 0xd1, 0x67, 0x8c, 0xbe, 0x23, 0xcc, 0x2a, 0xbd, 
	0xf5, 0x80, 0x6e, 0x3e, 0x3f, 0xb5, 0x33, 0x3e, 0x0b, 0xd2, 0xa5, 0x3d, 
	0x37, 0xd2, 0xd1, 0xbd, 0x19, 0x10, 0x32, 0xbe, 0x0a, 0x8b, 0x23, 0xbd, 
	0x67, 0x50, 0x81, 0x3e, 0xe5, 0x49, 0x6e, 0x3e, 0x71, 0x8c, 0x2b, 0xbd, 
	0xac, 0xe1, 0x71, 0xbe, 0xe0, 0xde, 0x3f, 0xbe, 0x63, 0x87, 0xd3, 0x3d, 
	0x3f, 0x2b, 0x45, 0xbe, 0xc9, 0x2e, 0x2a, 0x3d, 0x08, 0x38, 0xca, 0xbd, 
	0x88, 0x8b, 0x6e, 0x3d, 0xc0, 0x93, 0x92, 0xbe, 0x5f, 0x23, 0x83, 0xbe, 
	0xc0, 0x09, 0xbf, 0xbd, 0x20, 0xb5, 0xb4, 0xbe, 0x84, 0xdc, 0xa1, 0xbe, 
	0xab, 0x69, 0x28, 0xbf, 0x79, 0x47, 0xdf, 0xbe, 0x97, 0x8d, 0x69, 0xbd, 
	0xdf, 0x41, 0x4e, 0x3d, 0x85, 0xb4, 0xaa, 0x3d, 0x4f, 0x9e, 0x1f, 0xbe, 
	0x3d, 0x57, 0x8f, 0xbd, 0x13, 0xf6, 0xc6, 0xbd, 0x8d, 0x6d, 0xc5, 0x3c, 
	0x17, 0xa8, 0xae, 0xbe, 0x64, 0x66, 0xdb, 0x3e, 0x2c, 0x4e, 0x2a, 0x3f, 
	0xca, 0x34, 0x4f, 0x3e, 0xe0, 0x6f, 0xb8, 0xbe, 0xb8, 0xf9, 0xc3, 0x3e, 
	0x8c, 0xf7, 0x48, 0xbe, 0x74, 0xd3, 0x30, 0x3d, 0x6d, 0x7b, 0xab, 0x3d, 
	0x12, 0x38, 0x37, 0xbd, 0x7a, 0x9d, 0xcb, 0xbd, 0x03, 0x6b, 0x9d, 0xbd, 
	0xa0, 0xdc, 0x97, 0xbd, 0xa6, 0xef, 0x8f, 0xbe, 0x57, 0xe9, 0x88, 0x3e, 
	0xc4, 0x12, 0x11, 0xbd, 0x8d, 0x83, 0x1b, 0xbe, 0x8a, 0x33, 0x0d, 0xbf, 
	0x52, 0xce, 0x8c, 0xbe, 0xe6, 0x9e, 0x96, 0xbd, 0xe7, 0xae, 0x0b, 0x3c, 
	0x98, 0x99, 0xa2, 0xbd, 0x98, 0x5a, 0x1a, 0xbe, 0x9a, 0x7a, 0xe5, 0xbd, 
	0xcb, 0x5f, 0x88, 0x3e, 0xbf, 0x70, 0x9a, 0x3e, 0x93, 0x77, 0x4d, 0xbd, 
	0xd5, 0xc7, 0x64, 0x3e, 0xf6, 0x87, 0xdd, 0xbc, 0x72, 0xae, 0x5c, 0xbd, 
	0x9a, 0x01, 0x87, 0x3e, 0xcf, 0xf3, 0x8b, 0x3e, 0xe3, 0xf4, 0xec, 0x3d, 
	0x68, 0xde, 0x0e, 0xbe, 0xd1, 0xe9, 0xf2, 0xbc, 0x78, 0xb5, 0xdc, 0x3d, 
	0x80, 0xff, 0xa3, 0xbe, 0x24, 0x6f, 0x49, 0x3e, 0xec, 0x15, 0xbc, 0x3e, 
	0x26, 0xa4, 0xe6, 0x3c, 0x50, 0x5f, 0xe1, 0x3e, 0x0f, 0xc9, 0x50, 0x3e, 
	0x58, 0x47, 0x8d, 0x3d, 0xa3, 0x4d, 0xa2, 0x3e, 0x4b, 0x41, 0x0f, 0xbe, 
	0x39, 0x50, 0x34, 0x3d, 0xb6, 0x11, 0x10, 0x3d, 0x87, 0xf3, 0x76, 0xbd, 
	0x39, 0xcc, 0x89, 0x3d, 0xfa, 0xdb, 0xf8, 0x3e, 0x28, 0x62, 0xc1, 0x3d, 
	0x91, 0x3a, 0x2e, 0xbf, 0x76, 0x7a, 0xc4, 0xbe, 0x89, 0x64, 0x04, 0xbf, 
	0x24, 0x5d, 0xe1, 0x3c, 0x00, 0xe2, 0x26, 0xbc, 0x18, 0x99, 0x4b, 0xbe, 
	0x2d, 0x92, 0x28, 0xbe, 0x6a, 0x30, 0x25, 0xbe, 0xff, 0xbe, 0x3b, 0xbe, 
	0x78, 0x5d, 0xa1, 0xbe, 0xcd, 0x51, 0x94, 0xbe, 0xc8, 0x77, 0x46, 0xbc, 
	0x94, 0x1f, 0xcb, 0xbe, 0x32, 0x2b, 0xbb, 0xbe, 0xc6, 0x70, 0xe1, 0x3d, 
	0xb5, 0x9f, 0x83, 0xbe, 0xae, 0x86, 0x4c, 0x3d, 0x41, 0xf3, 0xbb, 0x3e, 
	0x69, 0x73, 0x99, 0x3e, 0x35, 0xdf, 0x8a, 0xbe, 0x98, 0x3e, 0x3c, 0xbd, 
	0x24, 0xbe, 0x12, 0xbe, 0x15, 0x38, 0xcb, 0x3d, 0xab, 0x9e, 0xa7, 0xbd, 
	0x02, 0x2a, 0x97, 0x3e, 0x1f, 0xcf, 0x71, 0xbb, 0xad, 0x88, 0xb1, 0x3e, 
	0x89, 0x84, 0x7e, 0xbc, 0xe4, 0x23, 0x76, 0x3e, 0xdc, 0x40, 0xce, 0xbc, 
	0xf7, 0x5f, 0xb4, 0x3e, 0x44, 0x40, 0x3c, 0x3d, 0xa7, 0x19, 0xa4, 0xbd, 
	0xe0, 0x95, 0x61, 0x3e, 0x33, 0x8b, 0x8d, 0xbd, 0x64, 0xff, 0xd4, 0x3d, 
	0x95, 0xfe, 0x54, 0xbe, 0xdd, 0xc0, 0x8c, 0xbe, 0xc4, 0x0f, 0x9b, 0x3e, 
	0x92, 0x10, 0x72, 0x3d, 0x81, 0xe0, 0x5d, 0x3d, 0xd5, 0x18, 0xb4, 0x3d, 
	0x16, 0xf5, 0x39, 0xbc, 0x5e, 0x8c, 0x3e, 0xbe, 0x0d, 0xe4, 0xa3, 0xbd, 
	0x4a, 0xde, 0xff, 0xff, 0x04, 0x00, 0x00, 0x00, 0x00, 0x01, 0x00, 0x00, 
	0xfd, 0x6b, 0x5b, 0xbe, 0x65, 0xac, 0x02, 0x3e, 0x1f, 0x24, 0x3a, 0xbd, 
	0xd5, 0x7e, 0x6f, 0xbe, 0x46, 0x39, 0xe8, 0x3c, 0xfa, 0xa1, 0xbc, 0xbd, 
	0x71, 0xb5, 0x77, 0xbd, 0x3e, 0xb1, 0x3c, 0x3c, 0x00, 0x68, 0x5e, 0xbe, 
	0x98, 0x21, 0x08, 0xbd, 0xd9, 0xda, 0x17, 0x3e, 0x8f, 0x7c, 0x25, 0xbd, 
	0xe3, 0x35, 0x2f, 0x3c, 0xe3, 0x65, 0x24, 0x3e, 0xfc, 0xbe, 0xa5, 0xbd, 
	0x89, 0x54, 0x46, 0x3e, 0x61, 0x23, 0x79, 0xbe, 0x40, 0x40, 0x93, 0xbd, 
	0x0a, 0x61, 0xd6, 0x3d, 0xf7, 0x34, 0xcb, 0x3b, 0x7d, 0x57, 0x20, 0x3d, 
	0x18, 0x8f, 0x90, 0xbe, 0x1b, 0xd5, 0x92, 0x3e, 0x4c, 0x66, 0x19, 0x3d, 
	0x7f, 0x3a, 0xe0, 0x3d, 0xc9, 0x27, 0x18, 0x3c, 0xcc, 0x44, 0x52, 0x3d, 
	0xe9, 0xe4, 0x91, 0x3e, 0xfc, 0x92, 0x36, 0x3d, 0xe4, 0x6a, 0x43, 0x3e, 
	0xa8, 0x8e, 0x0c, 0x3e, 0x44, 0xbe, 0x91, 0xbe, 0x0d, 0x53, 0x89, 0x3d, 
	0x26, 0xed, 0xfa, 0xbd, 0x35, 0x24, 0xb9, 0x3d, 0x4f, 0x0b, 0x5b, 0x3e, 
	0x62, 0x40, 0x88, 0x3e, 0x61, 0xb3, 0xb5, 0x3d, 0x28, 0xe7, 0x98, 0x3d, 
	0x5e, 0x2b, 0xff, 0xbc, 0xfa, 0xc6, 0x8a, 0xbe, 0xd1, 0xce, 0x06, 0xbe, 
	0xba, 0x4c, 0x31, 0xbc, 0x31, 0x28, 0x91, 0xbd, 0x41, 0x29, 0x83, 0xbe, 
	0xaf, 0xe9, 0xa2, 0x3a, 0xdc, 0xf6, 0xc8, 0x3d, 0x12, 0xc9, 0x43, 0x3e, 
	0x61, 0xff, 0xd2, 0xbd, 0xe8, 0x22, 0x58, 0x3d, 0x6a, 0xc9, 0x2c, 0xbd, 
	0x4d, 0x2a, 0x40, 0xbd, 0x6b, 0xd4, 0xa4, 0xbd, 0xd4, 0x93, 0x25, 0xbe, 
	0x83, 0x4b, 0x0d, 0x3e, 0x9e, 0x01, 0xd0, 0x3d, 0x2c, 0xf2, 0x5a, 0x3e, 
	0xed, 0x11, 0x03, 0xbd, 0x5f, 0xd4, 0x3c, 0x3d, 0x83, 0xa6, 0x8d, 0x3c, 
	0x44, 0xcc, 0x05, 0x3e, 0x4a, 0x24, 0x57, 0xbe, 0xfd, 0x92, 0xcc, 0xbd, 
	0x70, 0x4d, 0x6c, 0x3e, 0x56, 0xdf, 0xff, 0xff, 0x04, 0x00, 0x00, 0x00, 
	0x80, 0x00, 0x00, 0x00, 0x33, 0x1a, 0x52, 0xbd, 0x6f, 0x32, 0x04, 0x3e, 
	0x2a, 0x75, 0x17, 0x3d, 0x0f, 0x76, 0x15, 0xbd, 0x20, 0xab, 0x74, 0xbd, 
	0xa7, 0x63, 0x05, 0x3e, 0x12, 0x25, 0x95, 0x3d, 0x4a, 0x5e, 0x0d, 0x3c, 
	0xb4, 0x00, 0xbc, 0x3d, 0x9e, 0x25, 0x48, 0x3d, 0xdb, 0xd0, 0xd3, 0x3d, 
	0x39, 0x0f, 0x85, 0x3d, 0x77, 0x94, 0xbd, 0x3c, 0xa4, 0x92, 0x52, 0xbc, 
	0x86, 0x3e, 0xbd, 0xbc, 0x79, 0xea, 0x1d, 0xbd, 0x0e, 0x57, 0xd5, 0x3d, 
	0xe9, 0x23, 0x15, 0xbd, 0x47, 0x07, 0x0e, 0xbd, 0xd0, 0x31, 0x21, 0x3d, 
	0x0c, 0x41, 0x9d, 0xbc, 0xdb, 0xd8, 0xcd, 0x3d, 0x19, 0x29, 0xd8, 0xbc, 
	0x1d, 0xe3, 0x17, 0x3d, 0xdd, 0xa2, 0x17, 0x3e, 0xd1, 0xfc, 0x57, 0x3d, 
	0x98, 0xca, 0xed, 0xbd, 0x87, 0xa6, 0x52, 0x3c, 0x4f, 0x0b, 0x6e, 0x3d, 
	0x4c, 0x79, 0x9b, 0x3d, 0x5c, 0x10, 0xf1, 0x3d, 0xd8, 0xda, 0x4b, 0x3e, 
	0xe2, 0xdf, 0xff, 0xff, 0x04, 0x00, 0x00, 0x00, 0x04, 0x00, 0x00, 0x00, 
	0xc8, 0x4f, 0x1c, 0x3d, 0xf2, 0xdf, 0xff, 0xff, 0x04, 0x00, 0x00, 0x00, 
	0x00, 0x20, 0x00, 0x00, 0x1e, 0x27, 0xc4, 0x3c, 0x03, 0x62, 0x9e, 0x3d, 
	0x2d, 0x79, 0x39, 0x3d, 0x54, 0x02, 0xf1, 0x3e, 0x84, 0xaa, 0xab, 0x3d, 
	0xaf, 0x87, 0x94, 0xbe, 0x67, 0x1b, 0xc3, 0x3e, 0x67, 0x35, 0x1f, 0x3e, 
	0xbf, 0xd5, 0xdf, 0xbd, 0x23, 0x86, 0x56, 0xbe, 0x60, 0xdb, 0x01, 0xbf, 
	0xd0, 0x8f, 0xcb, 0x3e, 0x43, 0xe2, 0x3f, 0xbd, 0x5a, 0x76, 0x01, 0xbe, 
	0x81, 0x35, 0xa6, 0xbd, 0x25, 0x6d, 0x93, 0x3b, 0xe2, 0x66, 0x83, 0x3d, 
	0x65, 0x6a, 0xc1, 0x3d, 0x23, 0x24, 0x31, 0x3e, 0xbe, 0x33, 0x88, 0xbe, 
	0x92, 0xc9, 0x58, 0x3d, 0x45, 0x52, 0xc8, 0x3d, 0x01, 0x0b, 0x39, 0x3d, 
	0xb9, 0x96, 0x52, 0xbe, 0x1b, 0xc8, 0x50, 0x3e, 0x8c, 0xf6, 0x68, 0x3b, 
	0x20, 0xab, 0x6e, 0x3e, 0xfe, 0x16, 0xa5, 0xbe, 0x1d, 0xe7, 0x09, 0x3e, 
	0x24, 0x3e, 0x8c, 0x3e, 0x50, 0xa1, 0xcc, 0xbd, 0xba, 0x4f, 0x9d, 0x3e, 
	0xb8, 0x8f, 0x01, 0x3d, 0xc2, 0xe9, 0x1b, 0x3d, 0x0b, 0xfc, 0x86, 0x3e, 
	0xcb, 0x3e, 0x11, 0xbe, 0x15, 0xe9, 0x59, 0x3d, 0xbe, 0x20, 0x93, 0x3d, 
	0xe4, 0x43, 0x87, 0xbd, 0x5b, 0x29, 0xb2, 0x3e, 0x70, 0x10, 0xd1, 0x3e, 
	0x22, 0x93, 0xed, 0x3e, 0xbc, 0x19, 0x51, 0x3e, 0x41, 0x7e, 0x3e, 0xbe, 
	0xee, 0x25, 0x8f, 0xbe, 0x38, 0x00, 0x07, 0x3e, 0xab, 0xb1, 0x78, 0x3e, 
	0x2e, 0x31, 0xa2, 0x3d, 0x6c, 0x84, 0x98, 0xbc, 0xdc, 0x17, 0x54, 0x3e, 
	0xdc, 0x9c, 0x89, 0x3e, 0xd0, 0x80, 0x8c, 0x3d, 0x1d, 0x89, 0x28, 0xbc, 
	0xc4, 0x27, 0x37, 0x3d, 0x98, 0x73, 0x78, 0xbd, 0xe5, 0xe2, 0xbc, 0x3e, 
	0x7b, 0xa5, 0x37, 0xbe, 0x80, 0x6c, 0x40, 0x3d, 0x21, 0x10, 0x8c, 0xbd, 
	0x2a, 0x6d, 0x28, 0x3e, 0xfb, 0x3c, 0x0d, 0x3f, 0xa8, 0xc9, 0xa9, 0x3e, 
	0xb6, 0x39, 0x94, 0xbe, 0xcd, 0x50, 0x76, 0x3e, 0x75, 0x33, 0xcc, 0xbe, 
	0x60, 0xbe, 0x09, 0xbf, 0xb3, 0xa7, 0x98, 0xbd, 0x65, 0xc4, 0xf5, 0xbe, 
	0x49, 0x5c, 0x13, 0x3e, 0xae, 0xaf, 0x4e, 0x3e, 0x16, 0x4a, 0x11, 0xbe, 
	0x51, 0x2e, 0x84, 0x3d, 0xa9, 0x52, 0x7c, 0xbe, 0x57, 0x9b, 0xda, 0xbd, 
	0xf8, 0x08, 0x9e, 0x3e, 0xd5, 0xd0, 0xdd, 0xbe, 0x2f, 0xaf, 0xaa, 0xbe, 
	0x24, 0x52, 0xa2, 0x3e, 0x39, 0xe2, 0x67, 0x3d, 0x62, 0x9e, 0x70, 0x3e, 
	0x73, 0x3a, 0x1f, 0xbf, 0x01, 0x38, 0x97, 0xbe, 0x19, 0xb1, 0x76, 0x3e, 
	0xfd, 0x40, 0x82, 0xbe, 0x9b, 0xe3, 0x4c, 0x3e, 0x0f, 0x2c, 0xe2, 0xbe, 
	0x96, 0x2e, 0xb5, 0x3e, 0x1b, 0x99, 0x91, 0xbe, 0xb2, 0xae, 0xb9, 0x3c, 
	0x06, 0xe9, 0x8f, 0xbd, 0x0e, 0x22, 0xaf, 0xbe, 0x00, 0x27, 0xb3, 0x3e, 
	0xf4, 0xad, 0x9b, 0xbe, 0x57, 0x4f, 0xfa, 0xbe, 0x71, 0x50, 0x1f, 0x3e, 
	0xf9, 0xb4, 0xd5, 0xbd, 0xb5, 0xc2, 0xec, 0xbd, 0xfe, 0x9f, 0x93, 0xbe, 
	0x2c, 0xc1, 0x9e, 0x3e, 0x34, 0x11, 0xb5, 0x3e, 0x94, 0x7e, 0x8a, 0xbd, 
	0x6b, 0x78, 0x22, 0x3e, 0xc6, 0x5b, 0x8c, 0xbe, 0x0d, 0x84, 0xa3, 0x3e, 
	0xd6, 0x43, 0x29, 0xbf, 0x5d, 0x82, 0x7b, 0xbe, 0xb6, 0x55, 0x47, 0x3d, 
	0xe3, 0x9d, 0x86, 0x3d, 0x7b, 0x85, 0x8a, 0xbe, 0x7c, 0x81, 0xc3, 0xbe, 
	0x9c, 0x9d, 0x07, 0x3e, 0xea, 0x44, 0x80, 0x3e, 0xcf, 0x21, 0x89, 0xbd, 
	0x27, 0x5d, 0xe1, 0x3c, 0xc9, 0xbd, 0x13, 0x3d, 0x2c, 0x5e, 0x80, 0xbe, 
	0x48, 0x73, 0x92, 0xbe, 0x9b, 0xca, 0xb7, 0x3c, 0x28, 0x05, 0x15, 0xbe, 
	0xb4, 0x7a, 0xb8, 0x3e, 0x10, 0x95, 0xd8, 0x3e, 0x0a, 0xa7, 0x57, 0x3e, 
	0x2b, 0x97, 0x16, 0xbe, 0xeb, 0xc9, 0x75, 0xbe, 0xe9, 0xbe, 0x89, 0xbe, 
	0xd0, 0xa7, 0xee, 0xbe, 0x7e, 0x39, 0x8e, 0xbd, 0xc7, 0xe7, 0x1b, 0x3d, 
	0x58, 0x03, 0x1f, 0xbd, 0x69, 0x35, 0xbb, 0xbd, 0x13, 0x7e, 0xe5, 0x3d, 
	0x40, 0xb7, 0x90, 0xbe, 0xad, 0x4a, 0xb0, 0x3e, 0x3b, 0xa0, 0xa2, 0xbd, 
	0xe5, 0xea, 0x9f, 0x3c, 0x0f, 0xcc, 0x14, 0x3f, 0x43, 0x99, 0xad, 0xbe, 
	0xdf, 0xad, 0x83, 0x3c, 0x00, 0x91, 0x83, 0xbc, 0xd9, 0x68, 0x7c, 0x3e, 
	0x47, 0xa9, 0x5a, 0xbe, 0xba, 0xf4, 0xb7, 0x3e, 0x39, 0xe8, 0xdc, 0xbe, 
	0xf4, 0xc5, 0xb6, 0x3d, 0xf8, 0x3e, 0x80, 0xbe, 0x6a, 0x95, 0x55, 0xbe, 
	0x34, 0x32, 0x85, 0x3e, 0x00, 0xa8, 0x26, 0x3e, 0xce, 0xb4, 0x17, 0x3e, 
	0x25, 0x41, 0x85, 0xbe, 0xac, 0x97, 0xc6, 0x3e, 0xc9, 0x55, 0xd5, 0x3d, 
	0x39, 0x4c, 0x29, 0xbd, 0x7a, 0x75, 0x9c, 0x3e, 0x0d, 0x63, 0xbf, 0xbe, 
	0xbb, 0xdd, 0x4e, 0x3e, 0xff, 0x8b, 0xce, 0xbe, 0x9f, 0xca, 0xc8, 0xbe, 
	0x84, 0x77, 0xd2, 0xbe, 0x67, 0xe8, 0x96, 0xbe, 0x1f, 0x0b, 0x39, 0xbe, 
	0xb1, 0x12, 0x21, 0xbf, 0x5c, 0xb8, 0x1e, 0x3e, 0xa6, 0xd8, 0x9b, 0xbe, 
	0x4a, 0x0b, 0xc1, 0xbe, 0xe3, 0xd6, 0x46, 0xbe, 0x21, 0x45, 0x97, 0xbe, 
	0x22, 0xc9, 0x62, 0x3e, 0x83, 0x06, 0x9f, 0xbe, 0x19, 0x70, 0x7a, 0xbd, 
	0x1d, 0x21, 0x1b, 0xbe, 0xce, 0x92, 0x97, 0x3e, 0x5b, 0x9f, 0xae, 0xbe, 
	0xf5, 0xf7, 0xa2, 0x3e, 0x51, 0x44, 0x06, 0xbf, 0x14, 0x6b, 0x8c, 0xbd, 
	0x70, 0xca, 0x38, 0xbd, 0x86, 0x95, 0x8a, 0xbe, 0xd9, 0xc1, 0x06, 0xbe, 
	0xe3, 0x06, 0xc7, 0xbb, 0x88, 0x62, 0xf3, 0xbe, 0xb2, 0xa6, 0x2b, 0x3d, 
	0xaa, 0x73, 0x0a, 0xbc, 0x9d, 0xdb, 0xf8, 0x3e, 0x5c, 0x6e, 0x99, 0xbd, 
	0x86, 0x33, 0xf0, 0x3d, 0x63, 0x1b, 0x10, 0xbe, 0x57, 0xbf, 0x04, 0x3d, 
	0xb3, 0x54, 0x13, 0xbf, 0xbb, 0x89, 0x55, 0xbe, 0x63, 0x87, 0xb7, 0xbe, 
	0x65, 0x84, 0xad, 0xbc, 0x2b, 0x43, 0x6e, 0x3c, 0xff, 0x78, 0x9b, 0x3e, 
	0x89, 0x95, 0x4e, 0x3e, 0xac, 0x90, 0xea, 0x3e, 0x07, 0x3c, 0x51, 0xbe, 
	0x3d, 0x83, 0x4b, 0x3e, 0x5b, 0x7d, 0x0c, 0x3f, 0x9c, 0x02, 0xc4, 0xbe, 
	0x45, 0x65, 0xe1, 0xbd, 0x96, 0x66, 0xba, 0x3e, 0x78, 0xf4, 0xc0, 0xbd, 
	0x1e, 0x97, 0x04, 0x3f, 0xc4, 0xb4, 0x5b, 0x3d, 0x9e, 0x14, 0x63, 0xbc, 
	0xdb, 0xd2, 0xd3, 0xbe, 0x6e, 0xfd, 0x14, 0xbe, 0x41, 0xae, 0x83, 0x3e, 
	0xb7, 0x21, 0x1d, 0x3e, 0xcc, 0x99, 0x6f, 0x3e, 0x27, 0x81, 0x27, 0xbd, 
	0x45, 0x00, 0x6e, 0xbe, 0x82, 0x13, 0x04, 0x3f, 0xb5, 0xa3, 0x01, 0xbe, 
	0x2d, 0xca, 0xc9, 0xbd, 0x9c, 0xc4, 0x94, 0x3e, 0x5e, 0xb7, 0x60, 0xbd, 
	0x3d, 0xa6, 0xcb, 0x3e, 0x11, 0x63, 0x4a, 0x3e, 0xdb, 0xa7, 0xbe, 0x3c, 
	0x49, 0x41, 0x94, 0x3e, 0x6b, 0x6c, 0x91, 0x3d, 0xf8, 0x88, 0x06, 0x3f, 
	0x86, 0xe0, 0x3a, 0x3e, 0x95, 0x23, 0xdc, 0x3d, 0x2d, 0xea, 0xed, 0xbc, 
	0x12, 0xa0, 0x03, 0xbe, 0x02, 0x8e, 0x6d, 0x3e, 0x3f, 0xe1, 0x51, 0xbe, 
	0x5f, 0xf8, 0x1a, 0xbe, 0x0d, 0xe9, 0xa6, 0xbe, 0x58, 0x8a, 0xb4, 0x3e, 
	0x20, 0x76, 0xfe, 0x3d, 0x54, 0x9a, 0x9d, 0x3e, 0xef, 0x17, 0xa3, 0xbd, 
	0xf1, 0x6e, 0x2f, 0x3e, 0x15, 0xa5, 0x4c, 0x3e, 0xde, 0x63, 0xac, 0x3e, 
	0x73, 0x41, 0xa5, 0xbe, 0x1b, 0x6f, 0x3e, 0x3e, 0x4d, 0x64, 0x1d, 0x3c, 
	0x13, 0x34, 0x5c, 0x3b, 0x48, 0x65, 0x5a, 0x3d, 0x17, 0xa8, 0x0f, 0x3d, 
	0x8b, 0xdc, 0xea, 0x3e, 0x7e, 0xe9, 0x16, 0x3d, 0x68, 0x4c, 0x60, 0xbe, 
	0xc4, 0x99, 0x8e, 0xbe, 0x43, 0x93, 0xcd, 0x3d, 0xb6, 0x11, 0x41, 0xbe, 
	0xc0, 0x65, 0x92, 0x3e, 0x94, 0x73, 0x11, 0xbe, 0x1f, 0xb7, 0xae, 0x3e, 
	0x74, 0x2b, 0x4d, 0x3a, 0x8b, 0xfd, 0x55, 0xbd, 0x3c, 0xd6, 0x58, 0x3e, 
	0xb4, 0x28, 0x81, 0x3c, 0x6f, 0x33, 0x37, 0x3e, 0x5b, 0xc8, 0x38, 0x3e, 
	0xa0, 0xf1, 0xa4, 0xbe, 0xff, 0x7c, 0x0f, 0x3d, 0xa5, 0x67, 0x09, 0x3f, 
	0x21, 0xd2, 0x69, 0xbe, 0x4d, 0x57, 0x84, 0x3e, 0x67, 0x25, 0x96, 0x3e, 
	0xaf, 0xbe, 0x07, 0xbe, 0x4a, 0xe5, 0xc1, 0x3e, 0x27, 0xb7, 0x0c, 0x3e, 
	0x44, 0x2c, 0x87, 0x3e, 0x36, 0xb8, 0x4f, 0xbe, 0x06, 0xff, 0x9d, 0xbe, 
	0x68, 0x12, 0x70, 0x3e, 0x98, 0xfe, 0x9b, 0xbd, 0x3c, 0x33, 0x1d, 0x3e, 
	0xd2, 0xc8, 0xc5, 0xbc, 0x6d, 0x37, 0x55, 0xbe, 0x71, 0x7b, 0x8c, 0x3e, 
	0x4b, 0x19, 0x18, 0x3e, 0xa3, 0x20, 0x8a, 0x3d, 0xd0, 0x8f, 0x2a, 0x3f, 
	0x9f, 0xc9, 0xbd, 0x3e, 0xab, 0x2a, 0x9c, 0x3d, 0xa9, 0xfb, 0xf6, 0x3d, 
	0x17, 0xb4, 0x83, 0x3e, 0xa4, 0x24, 0xdf, 0x3d, 0x35, 0xb8, 0xa5, 0x3e, 
	0x76, 0xce, 0xc8, 0x3e, 0x11, 0x05, 0x69, 0xbd, 0x0f, 0xb9, 0x9d, 0x3e, 
	0x55, 0x40, 0x91, 0x3d, 0x7b, 0xdf, 0x24, 0xbe, 0xcc, 0x17, 0x09, 0x3d, 
	0x55, 0x82, 0x01, 0xbe, 0x5b, 0x4b, 0x88, 0x3d, 0x66, 0x79, 0x45, 0x3e, 
	0xd1, 0xf0, 0x28, 0x3e, 0x0e, 0xae, 0xad, 0x3e, 0x58, 0x3b, 0x40, 0xbe, 
	0xa7, 0xfd, 0x03, 0xbb, 0x4c, 0x49, 0x6b, 0x3e, 0x65, 0x12, 0x9e, 0x3e, 
	0x77, 0x67, 0x2d, 0x3e, 0x4f, 0xc5, 0x68, 0xbe, 0xb5, 0xf3, 0x83, 0x3e, 
	0xd1, 0xe3, 0x16, 0x3d, 0x54, 0x99, 0xa5, 0x3d, 0xc9, 0x5d, 0x1f, 0x3e, 
	0x34, 0x24, 0xfa, 0xbd, 0x9c, 0xf7, 0x9c, 0x3e, 0x68, 0x83, 0xb0, 0xbe, 
	0x64, 0x72, 0x6e, 0xbe, 0x53, 0xc7, 0xcf, 0xbd, 0x83, 0x12, 0x14, 0x3e, 
	0xeb, 0x07, 0x38, 0xbe, 0x6f, 0xc6, 0xd8, 0x3d, 0xdf, 0xe0, 0xa3, 0xbe, 
	0xcc, 0x83, 0x65, 0x3d, 0x72, 0x4c, 0xb0, 0xbd, 0x22, 0x08, 0x84, 0xbc, 
	0xc9, 0x77, 0xc4, 0xbe, 0xc8, 0xfe, 0x43, 0xbf, 0x2b, 0x7a, 0x74, 0xbe, 
	0x64, 0x1a, 0x2b, 0xbe, 0x2a, 0xf8, 0xad, 0x3e, 0xf5, 0x48, 0x5a, 0xbd, 
	0x64, 0xa6, 0xf2, 0xbe, 0x80, 0xed, 0xa0, 0x3e, 0xf9, 0xa9, 0x84, 0xbe, 
	0x54, 0x0f, 0x7e, 0x3e, 0xb4, 0x5f, 0xa1, 0x3e, 0xcd, 0xdb, 0x50, 0xbe, 
	0xd6, 0x01, 0x8f, 0x3e, 0xde, 0x2e, 0x68, 0xbe, 0xad, 0xe9, 0x11, 0x3e, 
	0xa2, 0x9f, 0x8c, 0xbd, 0xcd, 0x21, 0xc4, 0xbe, 0x3b, 0xb4, 0x31, 0xbe, 
	0xf5, 0x77, 0x40, 0x3e, 0x62, 0x79, 0xc3, 0x3d, 0x5a, 0x12, 0x5f, 0x3e, 
	0x2c, 0x0e, 0x0a, 0xbf, 0x85, 0xc5, 0xf5, 0x3e, 0x97, 0xbf, 0xe8, 0x3d, 
	0x70, 0x45, 0x0b, 0xbe, 0x49, 0x91, 0x30, 0x3d, 0xa7, 0x8b, 0xc2, 0xbe, 
	0x98, 0x10, 0x76, 0x3e, 0x20, 0xa0, 0x3b, 0xbf, 0x3e, 0x97, 0x6c, 0xbe, 
	0x83, 0x2e, 0xfa, 0x3b, 0xd8, 0xa0, 0x59, 0xbe, 0xb1, 0x68, 0x5d, 0x3d, 
	0xb6, 0x32, 0x45, 0xbe, 0xd6, 0x98, 0xa1, 0xbd, 0x2d, 0x38, 0xf3, 0x3e, 
	0x88, 0x28, 0x96, 0xbd, 0x30, 0x1b, 0xd2, 0x3d, 0x68, 0x48, 0x26, 0x3e, 
	0x6a, 0x12, 0x3e, 0x3d, 0xad, 0xe1, 0xc5, 0xbe, 0x61, 0x9c, 0x19, 0xbe, 
	0x54, 0x7a, 0x87, 0xbe, 0xd3, 0xc5, 0x6e, 0xbd, 0x9a, 0x20, 0xb5, 0xbe, 
	0x8f, 0x67, 0xd7, 0xbe, 0x4b, 0x2f, 0x2e, 0xbd, 0x9d, 0x38, 0x7c, 0x3e, 
	0xa0, 0x33, 0x84, 0xbe, 0x3f, 0x85, 0x92, 0xbe, 0x36, 0xeb, 0xe3, 0x3d, 
	0x2a, 0x07, 0x5f, 0xbe, 0x05, 0xb1, 0x1e, 0xbc, 0x43, 0xc6, 0xc7, 0xbd, 
	0xa3, 0x26, 0x0b, 0xbd, 0x9a, 0x9b, 0x01, 0x3e, 0x43, 0x38, 0xdd, 0x3e, 
	0x5c, 0xf0, 0x88, 0xba, 0x62, 0xab, 0xa1, 0x3d, 0x2f, 0x59, 0xaa, 0xbe, 
	0x41, 0x06, 0x22, 0x3e, 0x25, 0x7f, 0x07, 0xbe, 0xa4, 0xda, 0x05, 0x3e, 
	0xc9, 0x39, 0x7f, 0x3e, 0xb6, 0x80, 0x40, 0xbe, 0xe1, 0x2f, 0xac, 0xbe, 
	0xe7, 0x03, 0x24, 0x3e, 0x94, 0x04, 0xad, 0xbe, 0xd8, 0xf6, 0x6c, 0x3d, 
	0x08, 0x06, 0x04, 0x3c, 0xd1, 0xfb, 0xee, 0xbd, 0x66, 0x81, 0x39, 0x3e, 
	0x4f, 0xb4, 0x81, 0x3d, 0x22, 0x16, 0x2f, 0x3e, 0x35, 0xbe, 0x81, 0x3e, 
	0xfd, 0x5c, 0x11, 0x3d, 0xc5, 0xaa, 0x20, 0xbe, 0x03, 0xd8, 0x95, 0x3e, 
	0x02, 0x81, 0xbf, 0xbd, 0xb3, 0xff, 0xfc, 0x3d, 0x2f, 0x07, 0x1a, 0xbf, 
	0x43, 0x66, 0x23, 0xbd, 0x0e, 0x11, 0x4a, 0x3e, 0x68, 0x22, 0x62, 0xbe, 
	0x77, 0x27, 0x19, 0xbc, 0x4b, 0x52, 0x72, 0xbe, 0xef, 0x1a, 0x7c, 0x3e, 
	0x6e, 0x2e, 0xef, 0xbe, 0x69, 0x6f, 0x05, 0x3e, 0x44, 0xa7, 0x9e, 0xbd, 
	0x87, 0xd3, 0xd5, 0xbc, 0xae, 0x44, 0x82, 0x3e, 0x49, 0x46, 0xca, 0xbe, 
	0x81, 0x2b, 0xac, 0xbe, 0x6b, 0x17, 0x24, 0x3e, 0x6a, 0xd5, 0xb5, 0xbe, 
	0xac, 0xc1, 0x84, 0xbe, 0x01, 0x9d, 0x31, 0xbe, 0xd9, 0xac, 0x0c, 0x3e, 
	0xce, 0x0e, 0xa2, 0x3e, 0xbf, 0x15, 0xfa, 0x3d, 0xa7, 0x0d, 0x8c, 0x3e, 
	0x4d, 0xf0, 0xf9, 0xbd, 0x4b, 0x59, 0x69, 0x3d, 0xfb, 0xb0, 0xfc, 0xbd, 
	0x41, 0x86, 0xd4, 0x3d, 0x9e, 0x26, 0x36, 0xbd, 0x07, 0xf7, 0x8e, 0xbb, 
	0x4c, 0x5b, 0xb0, 0xbe, 0x4e, 0xcd, 0xcd, 0xbe, 0xe3, 0x0b, 0x86, 0xbe, 
	0xde, 0x75, 0x5d, 0xbe, 0xd4, 0xce, 0xa9, 0xbe, 0x34, 0xac, 0x4a, 0x3d, 
	0x15, 0xce, 0x6b, 0xbe, 0x06, 0xba, 0x59, 0xbe, 0x1e, 0x65, 0xd1, 0x3c, 
	0xc2, 0x70, 0xb7, 0xbe, 0x24, 0xa8, 0x41, 0x3e, 0x9f, 0x70, 0xca, 0x3e, 
	0xde, 0x4b, 0xcd, 0x3e, 0x70, 0xe8, 0x94, 0x3d, 0x8d, 0x45, 0x1b, 0xbd, 
	0xa7, 0x8d, 0xcb, 0xbd, 0xd8, 0xd7, 0x9a, 0xbd, 0x33, 0x0c, 0xe4, 0xbe, 
	0x2f, 0x71, 0xbf, 0xbe, 0x58, 0xfd, 0xd2, 0x3d, 0x92, 0xfd, 0xf0, 0x3c, 
	0xc7, 0xe6, 0x85, 0x3d, 0x1d, 0x25, 0xe0, 0x3d, 0x00, 0x9b, 0x3b, 0x3e, 
	0xde, 0xc5, 0xab, 0xbe, 0x83, 0x91, 0x9b, 0x3e, 0xc1, 0xb7, 0x1c, 0x3f, 
	0x2a, 0xff, 0xa5, 0xbe, 0x57, 0x7a, 0x33, 0xbd, 0xb3, 0x11, 0xa5, 0x3c, 
	0x54, 0x0d, 0x01, 0xbe, 0x9b, 0x70, 0x0c, 0x3e, 0x1c, 0x2d, 0xd3, 0xbd, 
	0xed, 0x64, 0x52, 0x3c, 0x5d, 0xbf, 0x59, 0xbe, 0xda, 0x20, 0xaf, 0xbe, 
	0x7d, 0x46, 0x3b, 0x3c, 0xc1, 0xfe, 0x67, 0xbe, 0x6b, 0xe4, 0x11, 0x3e, 
	0x6a, 0x87, 0x0e, 0x3d, 0xd8, 0xe8, 0x89, 0xbe, 0x98, 0xcc, 0xae, 0x3d, 
	0x4a, 0xb8, 0xd1, 0xbe, 0xb1, 0x5c, 0xba, 0xbd, 0x0f, 0xf3, 0xd4, 0x3e, 
	0x50, 0x4d, 0xaf, 0x3e, 0x95, 0x90, 0x22, 0x3d, 0x15, 0xde, 0x94, 0x3e, 
	0x9c, 0xff, 0xb0, 0x3e, 0xa5, 0x9e, 0xb8, 0x3e, 0xae, 0x39, 0xbd, 0xba, 
	0xf7, 0x8d, 0x51, 0xbe, 0x7c, 0x5c, 0x16, 0x3e, 0x8f, 0xad, 0xa2, 0x3d, 
	0x0e, 0x26, 0x28, 0xbe, 0xb6, 0x2c, 0x14, 0x3c, 0x74, 0xaf, 0x77, 0x3e, 
	0xdd, 0xf4, 0xbc, 0xbe, 0xd3, 0x10, 0x42, 0x3e, 0x38, 0x44, 0xf1, 0xbe, 
	0x51, 0x68, 0xee, 0xbd, 0xf1, 0x6b, 0x1f, 0xbd, 0x58, 0xe1, 0x3f, 0x3e, 
	0xb7, 0xb3, 0x46, 0x3c, 0x40, 0x36, 0x06, 0xbd, 0x41, 0xc0, 0xff, 0x3e, 
	0x05, 0x94, 0xa3, 0xbd, 0xd7, 0xc2, 0xf5, 0xbc, 0x01, 0xc8, 0x9a, 0x3e, 
	0xd1, 0xe3, 0xe6, 0x3d, 0xf2, 0x90, 0x02, 0x3e, 0x35, 0xc5, 0xce, 0x3e, 
	0xb7, 0x86, 0x7b, 0x3e, 0x13, 0x0f, 0x7f, 0x3e, 0x26, 0x12, 0x09, 0xbe, 
	0x3b, 0x4d, 0x2f, 0xbf, 0xca, 0xe8, 0x80, 0xbe, 0xd9, 0x29, 0x00, 0xbe, 
	0x7c, 0xab, 0xe5, 0xbd, 0x72, 0x6c, 0xb6, 0x3d, 0x00, 0xb1, 0xf9, 0x3e, 
	0xeb, 0x52, 0x55, 0xbe, 0xc6, 0xc7, 0x41, 0x3d, 0xef, 0x41, 0xaf, 0x3d, 
	0xe7, 0x37, 0x18, 0x3d, 0x48, 0xc4, 0x40, 0x3e, 0xd3, 0x81, 0x1b, 0xbe, 
	0x0d, 0x31, 0xe2, 0x3e, 0x0f, 0xda, 0xf0, 0x3d, 0x8e, 0x1f, 0x98, 0x3c, 
	0x59, 0x30, 0xfd, 0x3e, 0x30, 0x74, 0x94, 0xbe, 0x5e, 0xdd, 0x90, 0x3a, 
	0xe1, 0x65, 0x43, 0xbe, 0x8c, 0x8a, 0x6d, 0xbe, 0x57, 0x88, 0x2f, 0x3e, 
	0x3c, 0x65, 0x9a, 0xbe, 0x97, 0x62, 0xee, 0xbd, 0x5e, 0xe4, 0xa8, 0xbb, 
	0xd6, 0xac, 0x26, 0xbd, 0xab, 0xba, 0x42, 0xbd, 0x3e, 0xaf, 0xbf, 0xbd, 
	0x79, 0x58, 0x93, 0x3e, 0x12, 0x86, 0xd1, 0xbd, 0xc4, 0x21, 0x24, 0x3e, 
	0x53, 0xf3, 0x7c, 0x3e, 0xbc, 0x0d, 0x5f, 0x3d, 0x17, 0xb6, 0x9a, 0x3e, 
	0x18, 0x8b, 0xfc, 0x3e, 0x7c, 0x6f, 0x94, 0x3e, 0xc9, 0x3d, 0x99, 0x3c, 
	0xce, 0xf1, 0x45, 0xbc, 0xed, 0x14, 0x99, 0x3e, 0x98, 0x15, 0x73, 0x3d, 
	0x26, 0xfa, 0x3b, 0x3d, 0x45, 0xb0, 0x83, 0x3d, 0x3b, 0x88, 0x0d, 0x3c, 
	0x17, 0x47, 0x63, 0x3d, 0x84, 0x0c, 0xc7, 0x3c, 0x9d, 0xd9, 0x83, 0xbe, 
	0xde, 0x20, 0x83, 0x3e, 0xa8, 0x2c, 0x4f, 0xbe, 0x4c, 0x82, 0x15, 0xbe, 
	0xa3, 0xda, 0x81, 0xbe, 0xf4, 0x30, 0x12, 0x3e, 0x93, 0x7d, 0xbc, 0x3e, 
	0x3a, 0xb4, 0x45, 0x3e, 0x68, 0x95, 0x60, 0xbe, 0x4d, 0xfd, 0x9e, 0x3e, 
	0x30, 0xfd, 0x0f, 0x3e, 0xb4, 0x3b, 0xa3, 0x3e, 0x0d, 0x19, 0xb0, 0x3d, 
	0x8d, 0x63, 0x43, 0x3e, 0xf6, 0xac, 0x5e, 0xba, 0xaa, 0x81, 0x07, 0x3e, 
	0x9c, 0x46, 0x78, 0x3e, 0x15, 0x15, 0x91, 0x3e, 0x3f, 0xd1, 0x63, 0x3e, 
	0x88, 0x49, 0x5e, 0x3e, 0xb1, 0x63, 0xd6, 0x3d, 0xa2, 0x2d, 0xd3, 0xbe, 
	0xcc, 0x63, 0x42, 0x3e, 0x8e, 0x2c, 0x10, 0x3d, 0xed, 0x0e, 0x0d, 0x3e, 
	0x4f, 0x76, 0xe1, 0x3e, 0x2d, 0x06, 0x65, 0x3e, 0xcd, 0xd4, 0x7c, 0x3e, 
	0x1b, 0xe4, 0x20, 0xbe, 0xdd, 0xde, 0x2e, 0x3e, 0x0d, 0x63, 0x47, 0xbe, 
	0x46, 0xc3, 0x03, 0x3e, 0x3e, 0xac, 0x0f, 0xbe, 0x1d, 0x1f, 0x36, 0x3d, 
	0xf5, 0xc7, 0x0c, 0x3e, 0x87, 0xd0, 0xb3, 0xbe, 0xf5, 0xea, 0x9b, 0x3e, 
	0xd2, 0xf9, 0x02, 0xbe, 0x71, 0x8c, 0x80, 0x3e, 0xda, 0x6a, 0x2e, 0x3e, 
	0xe8, 0x1c, 0x8f, 0xbe, 0x47, 0x96, 0xcf, 0x3d, 0xc4, 0xfa, 0x0b, 0x3d, 
	0xc9, 0x56, 0xd9, 0x3e, 0x0c, 0xff, 0x82, 0x3e, 0x57, 0x4e, 0x53, 0xbe, 
	0x4e, 0x06, 0x51, 0xbd, 0x38, 0x8b, 0x38, 0x3e, 0x9a, 0x80, 0x4e, 0x3e, 
	0xf0, 0x3d, 0x21, 0xbe, 0xc9, 0xf8, 0xb5, 0xbc, 0x4c, 0x6a, 0xdf, 0x3e, 
	0x6c, 0x7f, 0x1a, 0xbe, 0xd4, 0xaa, 0x95, 0xbe, 0x74, 0xc7, 0xa6, 0x3d, 
	0xf9, 0xc8, 0xa1, 0xbd, 0xb1, 0xd7, 0xe7, 0x3d, 0xc5, 0xcc, 0x26, 0x3e, 
	0xdf, 0x10, 0xcf, 0x3c, 0x06, 0x91, 0xd5, 0x3d, 0x53, 0x38, 0x99, 0x3c, 
	0x59, 0x16, 0x1b, 0x3e, 0xee, 0x9c, 0x29, 0xbe, 0xf9, 0xb5, 0x82, 0xbe, 
	0xd9, 0xb0, 0xf5, 0xbc, 0xb1, 0xda, 0x38, 0xbd, 0x47, 0x39, 0x35, 0xbc, 
	0xae, 0x0f, 0x5f, 0xbc, 0x60, 0xd5, 0x44, 0x3e, 0x0e, 0xb9, 0x9e, 0xbe, 
	0x30, 0x82, 0xb0, 0xbe, 0x2f, 0x04, 0x0b, 0xbd, 0x42, 0x4e, 0x05, 0x3e, 
	0xd4, 0x50, 0x62, 0xbb, 0x27, 0x8a, 0x91, 0xbe, 0xcf, 0x55, 0xb8, 0xbd, 
	0x92, 0x1b, 0x62, 0xbd, 0x83, 0x0f, 0x99, 0xbc, 0x74, 0x34, 0x18, 0x3e, 
	0xf9, 0xf2, 0x14, 0x3e, 0xc0, 0x9f, 0x33, 0xbe, 0x8e, 0x10, 0x76, 0x3c, 
	0xbe, 0x81, 0xac, 0xbe, 0x9e, 0x40, 0x8c, 0xbe, 0xea, 0x9b, 0x0d, 0xbe, 
	0xeb, 0xcf, 0xde, 0x3e, 0x9c, 0xf0, 0x7c, 0xbe, 0xcd, 0xe0, 0x66, 0x3e, 
	0x57, 0x87, 0x16, 0x3e, 0x10, 0xdd, 0x74, 0xbe, 0x12, 0x3b, 0x11, 0xbe, 
	0x8f, 0x14, 0x35, 0xbc, 0x78, 0x44, 0x70, 0x3e, 0xd9, 0xde, 0x84, 0x3e, 
	0x47, 0x75, 0x29, 0x3e, 0x22, 0xf1, 0x31, 0x3e, 0xe8, 0xc0, 0xa7, 0x3e, 
	0xe5, 0x67, 0x7f, 0x3e, 0x94, 0x57, 0xa6, 0x3d, 0x64, 0xc2, 0x82, 0x3e, 
	0xc6, 0x26, 0x52, 0xbe, 0xcc, 0xb6, 0x55, 0x3e, 0xc6, 0x2b, 0x7b, 0xbb, 
	0xcd, 0x8f, 0xb6, 0xbc, 0xc1, 0x24, 0xc7, 0x3e, 0x99, 0xdb, 0x96, 0xbc, 
	0xbf, 0xd6, 0x8d, 0x3e, 0x78, 0x1b, 0xcd, 0xbe, 0x81, 0x7c, 0x3a, 0xbd, 
	0xa6, 0x94, 0x5d, 0x3e, 0xd2, 0x1c, 0x9d, 0x3c, 0xb2, 0xd1, 0x84, 0xbc, 
	0x39, 0xa5, 0x45, 0x3e, 0x56, 0x5a, 0x33, 0x3e, 0x28, 0x73, 0xb6, 0x3e, 
	0x87, 0x08, 0xa5, 0xbe, 0xa7, 0xef, 0xae, 0x3c, 0xc1, 0x84, 0x17, 0x3f, 
	0xcd, 0xf2, 0x89, 0x3e, 0x28, 0xe5, 0x6e, 0xbd, 0xc9, 0xc6, 0xbb, 0xbd, 
	0xd3, 0xd6, 0xa5, 0xbb, 0x08, 0x3f, 0x7b, 0x3e, 0x40, 0x19, 0xd4, 0xbd, 
	0x12, 0xb0, 0x0f, 0x3e, 0x41, 0x7e, 0xe9, 0x3d, 0x85, 0xef, 0x5f, 0x3e, 
	0x48, 0x5c, 0xc4, 0x3d, 0xd0, 0x48, 0xb5, 0xbd, 0xbb, 0x6c, 0xe6, 0x3d, 
	0x78, 0x94, 0x85, 0x3c, 0x29, 0xd3, 0xc3, 0x3d, 0x41, 0x9e, 0x54, 0x3d, 
	0x06, 0x4d, 0xa5, 0x3e, 0x7c, 0x48, 0xbc, 0x3e, 0x6f, 0x4b, 0x4a, 0x3d, 
	0x42, 0x87, 0x11, 0xbe, 0xaa, 0x51, 0x69, 0x3e, 0x90, 0x11, 0xb2, 0x3e, 
	0xdf, 0x7f, 0x37, 0x3e, 0x52, 0xf7, 0x44, 0xbe, 0xe9, 0xd5, 0x94, 0x3e, 
	0x61, 0x66, 0x8c, 0xbe, 0x08, 0xf6, 0x68, 0x3e, 0xa1, 0x41, 0x87, 0x3e, 
	0x69, 0x3b, 0x81, 0x3e, 0x11, 0xbc, 0x43, 0x3e, 0x6f, 0x38, 0xaf, 0x3e, 
	0x65, 0x0b, 0x96, 0xbd, 0xb4, 0xa2, 0xec, 0xbe, 0xd5, 0x72, 0x38, 0xbe, 
	0x8e, 0xd7, 0x66, 0xbe, 0xcf, 0x1b, 0xc8, 0xbc, 0x62, 0x34, 0xfa, 0x3e, 
	0xc9, 0xbf, 0x36, 0x3d, 0xc5, 0x8a, 0x25, 0xbe, 0xf7, 0x2a, 0x06, 0xbd, 
	0xcb, 0x84, 0x86, 0x3b, 0x23, 0xf4, 0x87, 0x3e, 0x1f, 0xbd, 0x77, 0xbe, 
	0x12, 0x77, 0x62, 0xbc, 0xb7, 0xa2, 0x7b, 0x3e, 0xb1, 0xae, 0x3e, 0x3e, 
	0xd5, 0xc2, 0x02, 0xbc, 0xb3, 0x14, 0x87, 0x3c, 0xab, 0x55, 0x85, 0xbe, 
	0x64, 0x30, 0xef, 0xbe, 0x27, 0xd5, 0xa5, 0x3e, 0x2c, 0x39, 0x01, 0x3f, 
	0xb0, 0x2f, 0xbd, 0xbe, 0x48, 0xe1, 0x69, 0xbe, 0x6d, 0xb2, 0xda, 0xbe, 
	0x4d, 0xdb, 0x79, 0xbd, 0x55, 0x36, 0xb9, 0x3b, 0xde, 0xab, 0x1f, 0xbe, 
	0x22, 0x59, 0x2f, 0xbe, 0x19, 0xa2, 0xbb, 0xbd, 0xf4, 0xb5, 0x8b, 0x3e, 
	0x4b, 0x4e, 0x9c, 0xbe, 0xe6, 0x92, 0x42, 0xbf, 0x8e, 0xc3, 0xc7, 0xbd, 
	0x35, 0xf2, 0x92, 0x3e, 0xda, 0xe3, 0x8d, 0x3e, 0xab, 0x7a, 0x1c, 0x3d, 
	0x39, 0x90, 0xd1, 0x3d, 0x04, 0x87, 0x0c, 0xbd, 0x7a, 0xfc, 0xe4, 0x3d, 
	0x56, 0x7d, 0xad, 0xbc, 0x32, 0xe8, 0x91, 0xbe, 0xe6, 0x46, 0x8f, 0x3e, 
	0xb0, 0xc9, 0xb5, 0xbd, 0x6b, 0x82, 0x19, 0xbd, 0x2a, 0xb9, 0x00, 0xbe, 
	0x7e, 0x09, 0xe0, 0x3e, 0x67, 0xdd, 0x1c, 0x3e, 0xd0, 0x78, 0x24, 0xbe, 
	0x36, 0x31, 0x3a, 0xbe, 0x4d, 0x54, 0xb4, 0x3d, 0xb5, 0x0f, 0x02, 0x3e, 
	0xbc, 0x93, 0x56, 0x3e, 0x38, 0x5f, 0x1a, 0xbd, 0xf3, 0x47, 0xcb, 0xbd, 
	0xb5, 0xc9, 0xad, 0xbe, 0xd6, 0x69, 0xf3, 0xbd, 0xca, 0x08, 0x93, 0xbd, 
	0x67, 0xfc, 0x51, 0x3d, 0xbc, 0x49, 0x38, 0xbe, 0x1f, 0xc9, 0xd2, 0xbe, 
	0xf2, 0xc6, 0xe3, 0xbd, 0x2f, 0xe6, 0x82, 0x3e, 0x01, 0xb1, 0xb5, 0x3e, 
	0xdc, 0x1c, 0xae, 0x3d, 0x0b, 0x37, 0xb8, 0xbe, 0x9f, 0x69, 0x0b, 0xbf, 
	0x33, 0xe8, 0x9e, 0xbe, 0x59, 0xa3, 0xe7, 0x3c, 0xe3, 0xb4, 0x41, 0xbe, 
	0x5b, 0x2a, 0x1b, 0x3f, 0xec, 0xb8, 0x69, 0x3d, 0xce, 0x07, 0x8b, 0x3e, 
	0xf2, 0xa4, 0xa1, 0x3e, 0x15, 0x91, 0x2d, 0x3e, 0x16, 0x47, 0x25, 0x3e, 
	0xd8, 0x98, 0x06, 0x3d, 0xdc, 0xa1, 0x82, 0x3e, 0x52, 0xba, 0xe8, 0x3b, 
	0xb6, 0xa4, 0x4d, 0x3e, 0xa9, 0xe6, 0x20, 0x3f, 0xd3, 0x34, 0x1a, 0xbf, 
	0x21, 0x4d, 0x2a, 0x3e, 0x06, 0x40, 0x5d, 0x3e, 0x05, 0xbf, 0xc8, 0x3c, 
	0xd2, 0x39, 0xc7, 0x3e, 0x8c, 0xb6, 0x91, 0xbe, 0x86, 0x18, 0x5e, 0x3e, 
	0xc6, 0x6e, 0x28, 0xbe, 0x3f, 0xa8, 0xc8, 0x3d, 0x13, 0x65, 0xf5, 0xbd, 
	0x2a, 0x2d, 0xc0, 0x3e, 0xbe, 0xf6, 0x5a, 0x3e, 0x4a, 0x56, 0x45, 0x3e, 
	0x93, 0x0c, 0x93, 0x3d, 0xdf, 0xa9, 0x08, 0x3f, 0x2a, 0x1b, 0x49, 0xbc, 
	0xd9, 0xbd, 0x52, 0x3d, 0xaf, 0xff, 0x1b, 0x3f, 0x07, 0x7d, 0x0a, 0x3c, 
	0x53, 0x52, 0x19, 0xbd, 0x6d, 0x10, 0x9e, 0xbd, 0x5c, 0xb6, 0x14, 0x3e, 
	0x60, 0x91, 0xf0, 0xbb, 0x80, 0x56, 0x37, 0x3e, 0xba, 0x24, 0xb5, 0x3e, 
	0x6e, 0x30, 0x81, 0x3e, 0x2c, 0xc7, 0x03, 0xbd, 0x92, 0x81, 0xd1, 0xbe, 
	0xf4, 0x2c, 0x9e, 0xbe, 0xd7, 0xae, 0x38, 0x3e, 0x22, 0xc3, 0xd1, 0xbd, 
	0xe3, 0xee, 0x6a, 0xbe, 0x87, 0x94, 0xcc, 0xbe, 0x26, 0x42, 0xfb, 0x3d, 
	0x27, 0x2e, 0xd0, 0x3e, 0x37, 0x32, 0xb2, 0x3e, 0x9b, 0xe6, 0x21, 0xbe, 
	0x97, 0x47, 0x66, 0x3e, 0xcf, 0xab, 0x79, 0xbc, 0x8b, 0xb4, 0x2c, 0xba, 
	0x1f, 0x2f, 0x30, 0xbd, 0xbc, 0xc4, 0x85, 0x3e, 0xe0, 0x2c, 0xe2, 0xbc, 
	0xa2, 0x53, 0xa4, 0x3e, 0x84, 0x84, 0x20, 0x3d, 0xa8, 0x3a, 0x08, 0x3d, 
	0xde, 0x66, 0x2a, 0x3e, 0x1c, 0x12, 0x31, 0xbe, 0x18, 0xb2, 0x56, 0xbe, 
	0x59, 0xd3, 0x16, 0xbe, 0xd9, 0x5a, 0x46, 0x3e, 0x92, 0xfb, 0x3b, 0xbe, 
	0x96, 0xab, 0xd6, 0x3d, 0x44, 0x46, 0x00, 0x3e, 0x7f, 0xe5, 0x9b, 0xbd, 
	0xb1, 0xb4, 0x8b, 0x3e, 0xcc, 0x74, 0x11, 0xbe, 0x18, 0xe4, 0x59, 0xbe, 
	0x85, 0xa0, 0xee, 0xbd, 0x24, 0x33, 0x23, 0x3e, 0x01, 0x44, 0x4d, 0x3e, 
	0x96, 0x95, 0x2b, 0xbe, 0xce, 0x77, 0x26, 0xbe, 0x32, 0x5c, 0x3e, 0x3e, 
	0x34, 0x82, 0x3b, 0xbd, 0xf1, 0x3c, 0x28, 0x3e, 0xef, 0xe4, 0xbd, 0xbd, 
	0x7d, 0x0f, 0x13, 0x3e, 0x37, 0xa0, 0x0c, 0xbe, 0x34, 0x08, 0x9f, 0xbd, 
	0xc6, 0x70, 0x89, 0xbe, 0x07, 0x41, 0x9e, 0x3e, 0x55, 0x79, 0x66, 0xbe, 
	0x74, 0x60, 0x9d, 0xbc, 0x22, 0xf1, 0x38, 0x3e, 0x1e, 0xdc, 0x89, 0xbd, 
	0x6b, 0x83, 0x82, 0xbe, 0x5a, 0xf9, 0x4f, 0x3d, 0x59, 0xf6, 0xcf, 0x3d, 
	0xd4, 0x8c, 0x9c, 0x3d, 0x7f, 0xd0, 0x70, 0x3d, 0xab, 0x1e, 0xda, 0xbd, 
	0xc2, 0x8f, 0x1e, 0x3e, 0xa8, 0x26, 0x08, 0xbe, 0x70, 0x39, 0xb8, 0xbd, 
	0x9d, 0x47, 0xa0, 0xbe, 0xc4, 0xf9, 0x3e, 0xbe, 0x78, 0x02, 0x36, 0x3e, 
	0xbb, 0x0f, 0x21, 0x3e, 0x7a, 0x96, 0x34, 0x3e, 0x93, 0x2a, 0x5e, 0x3e, 
	0x0b, 0x52, 0x12, 0x3e, 0x15, 0xb1, 0x19, 0xbe, 0x11, 0xb8, 0xed, 0xbd, 
	0x21, 0x10, 0x68, 0xbe, 0x29, 0xd4, 0x9f, 0xbc, 0x97, 0x7f, 0x08, 0xbe, 
	0xc6, 0xd4, 0x98, 0xbd, 0x83, 0xe9, 0xcc, 0xbc, 0x30, 0x30, 0x06, 0xbe, 
	0xbd, 0x29, 0x54, 0xbe, 0x1d, 0xd7, 0x30, 0xbe, 0x50, 0x6a, 0xc6, 0x3a, 
	0xf2, 0xa8, 0x65, 0xbe, 0x94, 0x9d, 0x16, 0xbd, 0x65, 0xc3, 0x8a, 0xbe, 
	0x0f, 0xea, 0xf6, 0xbd, 0x43, 0x98, 0x10, 0xbe, 0x85, 0xba, 0x36, 0xbe, 
	0xa0, 0x62, 0x19, 0x3e, 0xa9, 0xe5, 0x87, 0xbe, 0xa7, 0x09, 0x8b, 0xbd, 
	0x51, 0x83, 0xea, 0xbd, 0x55, 0x1a, 0x11, 0x3e, 0x9f, 0x3d, 0x46, 0x3e, 
	0x45, 0xe9, 0x90, 0x3d, 0x4f, 0x2d, 0x10, 0xbe, 0xdc, 0xee, 0x3e, 0xbe, 
	0x14, 0x8e, 0x8a, 0xbd, 0x1d, 0x4d, 0x09, 0xbe, 0x95, 0x62, 0xbd, 0xbd, 
	0xd7, 0xf4, 0xdf, 0xbd, 0x13, 0x53, 0xeb, 0xbc, 0xad, 0xbd, 0x6e, 0xbe, 
	0xa9, 0x9d, 0xe3, 0xbe, 0xb3, 0x69, 0x32, 0xbe, 0xfd, 0x25, 0xf5, 0x3d, 
	0x01, 0xfe, 0xd6, 0xbe, 0x42, 0xdf, 0x44, 0x3e, 0x1d, 0xd3, 0x4c, 0x3d, 
	0x31, 0xe8, 0x45, 0x3e, 0xbf, 0x3e, 0xaf, 0xbd, 0x67, 0xf8, 0xf0, 0xbe, 
	0x20, 0x00, 0xc7, 0x3e, 0xa0, 0x14, 0x2f, 0xbe, 0xc0, 0xe5, 0xcb, 0x3e, 
	0xd5, 0xe9, 0x68, 0xbe, 0xcf, 0x60, 0x8c, 0xbe, 0xce, 0x08, 0xe5, 0x3c, 
	0x69, 0xb9, 0x81, 0x3c, 0xcf, 0xd7, 0xb6, 0x3e, 0x86, 0x15, 0x8c, 0x3e, 
	0x98, 0xf8, 0x3f, 0xbe, 0x4d, 0x6d, 0x00, 0x3e, 0x1b, 0xd3, 0x80, 0x3e, 
	0xba, 0x61, 0x11, 0xbf, 0x71, 0x57, 0xfb, 0xbd, 0x84, 0x93, 0x77, 0x3d, 
	0xd1, 0xe5, 0xcc, 0x3c, 0x3c, 0xd8, 0x20, 0xbe, 0x1d, 0x8c, 0x99, 0xbd, 
	0x94, 0x80, 0x94, 0x3e, 0x14, 0xe1, 0xf3, 0xbd, 0x0f, 0x5c, 0x99, 0x3e, 
	0xf0, 0xe0, 0x1a, 0x3e, 0x22, 0x19, 0xb8, 0x3b, 0x1c, 0x0e, 0x20, 0x3e, 
	0x68, 0xac, 0x08, 0xbd, 0xf3, 0xb7, 0xac, 0x3e, 0x26, 0x41, 0x32, 0x3e, 
	0x69, 0x63, 0x52, 0x3e, 0xc2, 0x6d, 0x1c, 0xbe, 0x44, 0x22, 0x2d, 0xbe, 
	0x26, 0xf8, 0x4e, 0xbe, 0xcc, 0xb1, 0x9e, 0xbd, 0xba, 0xfd, 0xdd, 0xbd, 
	0x55, 0x59, 0x75, 0x3e, 0xf0, 0xc9, 0xe6, 0xbd, 0x80, 0x90, 0x1c, 0xbc, 
	0x13, 0x4c, 0xd4, 0xbd, 0x9f, 0x13, 0x3e, 0x3e, 0xcb, 0x84, 0x21, 0xbe, 
	0x6d, 0xea, 0xb7, 0x3d, 0x54, 0x5f, 0xc5, 0x3d, 0xde, 0xd8, 0x6d, 0xbe, 
	0xc9, 0x3b, 0x4a, 0x3e, 0xcd, 0x96, 0x8c, 0x3e, 0xd7, 0x3d, 0xe5, 0x3e, 
	0x97, 0x59, 0xb2, 0xbd, 0x92, 0x87, 0x3c, 0x3e, 0x8c, 0xc4, 0x87, 0x3e, 
	0x1e, 0x23, 0x37, 0xbe, 0x5c, 0xdc, 0x18, 0x3d, 0x11, 0xcf, 0x8b, 0x3e, 
	0xef, 0x30, 0x42, 0xbe, 0xee, 0x43, 0x8b, 0xbe, 0x07, 0x36, 0x1f, 0x3e, 
	0xbf, 0xf5, 0x47, 0xbe, 0xbc, 0x96, 0x25, 0x3e, 0xe4, 0x02, 0x4b, 0xbe, 
	0xcb, 0x7f, 0xc6, 0xbd, 0x63, 0xb4, 0x14, 0x3e, 0xf2, 0x94, 0x58, 0xbe, 
	0xdc, 0x62, 0xf6, 0x3d, 0xcb, 0x27, 0x54, 0xbe, 0x59, 0x7e, 0x2d, 0xbe, 
	0x57, 0x0a, 0x14, 0xbc, 0xf8, 0x7c, 0x76, 0xbe, 0xa0, 0x11, 0x82, 0xbe, 
	0x22, 0x03, 0x18, 0x3e, 0xf3, 0xc2, 0xed, 0xbd, 0x55, 0xef, 0x8e, 0x3d, 
	0xa8, 0x51, 0x96, 0x3d, 0x33, 0x44, 0x30, 0x3d, 0x38, 0xc1, 0x70, 0xbe, 
	0xd5, 0x6d, 0x8b, 0x3c, 0x0a, 0x4e, 0x4d, 0x3e, 0xc3, 0x7a, 0x9f, 0x3c, 
	0x48, 0x3d, 0x98, 0x3d, 0xd1, 0xb2, 0x28, 0x3e, 0xbc, 0x75, 0x20, 0xbe, 
	0x4b, 0xd1, 0x0e, 0xbe, 0xf5, 0xc2, 0x68, 0xbe, 0xd4, 0x11, 0x9d, 0x3d, 
	0xf6, 0xa0, 0x34, 0xbe, 0xbf, 0xc5, 0x63, 0x3d, 0x95, 0x35, 0xec, 0xbd, 
	0xbf, 0x98, 0xc7, 0xbd, 0x35, 0x6a, 0x9c, 0x3d, 0x3e, 0x69, 0x85, 0x3d, 
	0x63, 0xa2, 0x5f, 0xbd, 0x93, 0xdb, 0xc6, 0xbd, 0xc9, 0xbf, 0x2c, 0x3e, 
	0x09, 0x0e, 0x6d, 0x3e, 0xff, 0x31, 0x4c, 0xbe, 0x9d, 0x31, 0x26, 0xbe, 
	0x5c, 0x5d, 0xea, 0x3b, 0xab, 0x45, 0xdb, 0x3d, 0xcc, 0x4e, 0x06, 0x3e, 
	0xa1, 0x3c, 0xef, 0x3d, 0x17, 0x83, 0x2e, 0xbe, 0x4f, 0xf3, 0x4c, 0xbe, 
	0x16, 0x33, 0x70, 0xbe, 0x4d, 0xa7, 0x1a, 0xbe, 0x8e, 0x69, 0x5d, 0xbd, 
	0xa5, 0xf0, 0x49, 0xbe, 0x8b, 0xc4, 0xf9, 0x3c, 0x5a, 0xf2, 0xfd, 0xbc, 
	0x31, 0x30, 0xce, 0xbd, 0xd9, 0x1f, 0x13, 0xba, 0xc5, 0xee, 0x07, 0xbe, 
	0xca, 0x17, 0x16, 0xbd, 0xcb, 0x97, 0xc0, 0xbd, 0xb3, 0x37, 0x4f, 0xbe, 
	0x3e, 0xa4, 0x0a, 0xbd, 0xa1, 0x63, 0x30, 0xbe, 0x0e, 0xaf, 0xf6, 0xbd, 
	0xe0, 0x6f, 0x90, 0x3d, 0x31, 0xa4, 0xa7, 0xbb, 0xff, 0x32, 0x8e, 0xbe, 
	0x64, 0x17, 0x38, 0xbf, 0x47, 0x61, 0xf6, 0x3d, 0x18, 0x25, 0xea, 0xbe, 
	0xfd, 0x95, 0xec, 0xbd, 0xa3, 0x13, 0x1e, 0xbe, 0x9b, 0x10, 0x44, 0xbe, 
	0xda, 0x99, 0xa8, 0x3e, 0x8c, 0x27, 0x3c, 0x3c, 0x7b, 0xcc, 0xbd, 0x3d, 
	0x32, 0x35, 0x97, 0x3e, 0x48, 0x6d, 0x78, 0xbe, 0x66, 0xe6, 0x8d, 0x3e, 
	0x87, 0x73, 0x24, 0xbe, 0x75, 0x51, 0xb5, 0x3e, 0x9f, 0xbd, 0x39, 0x3e, 
	0x95, 0x49, 0xd0, 0xbe, 0xa5, 0x88, 0x42, 0xbe, 0x21, 0x14, 0xb2, 0x3d, 
	0x1d, 0x9b, 0x44, 0x3e, 0x69, 0xde, 0xd3, 0x3d, 0xe4, 0x67, 0x8b, 0xbe, 
	0x16, 0x8e, 0x03, 0x3f, 0xb8, 0x7d, 0x16, 0xbe, 0xc9, 0xce, 0x1a, 0xbf, 
	0x23, 0xde, 0xeb, 0xbd, 0x37, 0xf6, 0xb3, 0xbe, 0xbb, 0x3e, 0x77, 0x3e, 
	0xc9, 0xb9, 0x3d, 0xbf, 0x99, 0xf1, 0x87, 0xbe, 0xfe, 0x81, 0xb3, 0xbc, 
	0xee, 0xf2, 0x38, 0xbe, 0x93, 0x16, 0x88, 0xbe, 0x24, 0xff, 0x29, 0xbd, 
	0xcd, 0x7f, 0x05, 0x3e, 0x27, 0x1e, 0x89, 0x3e, 0x65, 0x4f, 0xaa, 0xbc, 
	0xd5, 0x9c, 0xd5, 0x3e, 0x4e, 0xd2, 0x8f, 0x3e, 0xa1, 0xdb, 0xad, 0x3e, 
	0x44, 0x57, 0xf5, 0xbd, 0x0f, 0x79, 0xec, 0xbd, 0x52, 0x11, 0xe3, 0x3c, 
	0xbe, 0x6a, 0x37, 0x3e, 0xcd, 0xc6, 0xb2, 0xbe, 0x87, 0xe3, 0x7b, 0xbe, 
	0x3d, 0xa9, 0xeb, 0x3d, 0x47, 0xdb, 0x9b, 0x3e, 0xe4, 0x06, 0x5f, 0xbe, 
	0xf7, 0x1b, 0x55, 0xbe, 0x4a, 0xcc, 0xca, 0x3d, 0x08, 0x47, 0x74, 0xbe, 
	0x35, 0x77, 0xea, 0x3d, 0x72, 0x80, 0xdd, 0xbe, 0xc7, 0x14, 0x3c, 0xbd, 
	0xf4, 0x12, 0x80, 0x3e, 0x47, 0x44, 0x13, 0x3f, 0xa2, 0x55, 0x86, 0x3e, 
	0xae, 0xbe, 0xa2, 0xbd, 0xf8, 0x6a, 0xdb, 0xbe, 0x17, 0x1a, 0x0c, 0x3e, 
	0xa5, 0xed, 0x9c, 0xbd, 0x7f, 0x3e, 0x96, 0xbe, 0x21, 0xeb, 0x5d, 0x3e, 
	0x7d, 0x84, 0x05, 0x3d, 0x42, 0xc7, 0x05, 0x3e, 0xd5, 0xa0, 0xc5, 0x3d, 
	0xb5, 0x83, 0xb2, 0x3e, 0x5a, 0x61, 0x27, 0xbe, 0x0b, 0xfa, 0x1b, 0x3d, 
	0x9c, 0x2e, 0xd0, 0x3e, 0x26, 0x1e, 0xae, 0xbd, 0xc9, 0x67, 0xc2, 0x3d, 
	0x7e, 0xa1, 0xd4, 0xbd, 0xc5, 0x43, 0x9a, 0xbb, 0xa5, 0xa1, 0xf4, 0x3e, 
	0xac, 0xf0, 0x80, 0xbe, 0xf7, 0xd7, 0xd2, 0xbc, 0x94, 0xbb, 0x2c, 0xbc, 
	0xdd, 0x48, 0x22, 0x3e, 0x07, 0xd0, 0xb2, 0x3e, 0xfd, 0xb7, 0x76, 0xbd, 
	0x73, 0xaf, 0x73, 0x3e, 0x34, 0x37, 0x22, 0xbe, 0xfc, 0x7b, 0x68, 0x3d, 
	0xa8, 0x3f, 0x8c, 0x3e, 0xaa, 0x96, 0x6c, 0xbd, 0xd6, 0x9b, 0x67, 0x3e, 
	0x56, 0x8f, 0x1a, 0x3f, 0xc1, 0xef, 0x5b, 0x3d, 0x92, 0xf8, 0x54, 0x3e, 
	0xf2, 0xe6, 0xe5, 0x3d, 0x82, 0x05, 0x11, 0xbe, 0x97, 0x5a, 0x96, 0x3d, 
	0xce, 0x9f, 0x78, 0x3e, 0xfd, 0x4a, 0xca, 0x3e, 0x7c, 0xca, 0x69, 0x3e, 
	0xcb, 0x2f, 0x0a, 0x3e, 0x03, 0x04, 0x98, 0xbe, 0x69, 0xec, 0x59, 0x3d, 
	0xd7, 0xdc, 0x60, 0x3c, 0xe1, 0x6f, 0x35, 0xbe, 0xe0, 0x50, 0x66, 0x3d, 
	0x6c, 0xa5, 0x4d, 0xbe, 0x71, 0x88, 0x07, 0xbd, 0x13, 0x4e, 0xbb, 0x3e, 
	0x0b, 0x08, 0x5a, 0x3e, 0x38, 0x1b, 0x3d, 0x3d, 0x04, 0x99, 0x20, 0x3e, 
	0x78, 0x0b, 0xde, 0x3d, 0xb8, 0x60, 0x85, 0x3e, 0x62, 0x9e, 0x1a, 0xbe, 
	0x09, 0x20, 0x89, 0x3e, 0x38, 0x6a, 0x31, 0x3e, 0x22, 0xb0, 0x55, 0x3d, 
	0x6a, 0x83, 0x8d, 0x3e, 0x01, 0x38, 0xc8, 0xbd, 0x1a, 0x45, 0x50, 0x3e, 
	0xec, 0xfb, 0x91, 0xbe, 0x35, 0xe9, 0xa8, 0xbe, 0xe7, 0xbf, 0xbc, 0x3c, 
	0xa7, 0x2d, 0x33, 0x3e, 0x08, 0xfe, 0x95, 0x3d, 0x94, 0x7a, 0x92, 0xbc, 
	0xd0, 0x63, 0xbc, 0xbd, 0x27, 0xa5, 0x39, 0x3e, 0x7e, 0x5f, 0xf2, 0x3d, 
	0x20, 0x4d, 0x3c, 0xbe, 0x74, 0xb4, 0xdd, 0x3d, 0x66, 0xaf, 0x05, 0xbe, 
	0xa7, 0x02, 0x2d, 0x3e, 0xcd, 0xe9, 0x89, 0x3b, 0xe7, 0x46, 0xa6, 0xbe, 
	0xfe, 0x22, 0xa7, 0x3d, 0xb0, 0x94, 0xa8, 0x3e, 0x51, 0x5d, 0xb2, 0xbe, 
	0xbd, 0xf2, 0xd6, 0x3d, 0x91, 0xdd, 0xf9, 0xbc, 0x3a, 0xb8, 0x9e, 0xbd, 
	0xe2, 0xe6, 0x82, 0x3e, 0x83, 0xde, 0xa8, 0xbe, 0xcd, 0x31, 0x99, 0x3d, 
	0xe8, 0xc4, 0x32, 0xbe, 0xdd, 0x2b, 0x37, 0xbb, 0xe8, 0x28, 0x96, 0xbe, 
	0xaa, 0x2b, 0x3f, 0xbe, 0xce, 0xce, 0x5a, 0x3e, 0x27, 0x1c, 0x27, 0x3d, 
	0x77, 0x6e, 0x4c, 0xbe, 0x8b, 0x39, 0x0e, 0x3d, 0x26, 0x6b, 0xf4, 0xbd, 
	0xbf, 0xc6, 0x48, 0x3d, 0x83, 0xc2, 0xd5, 0x3e, 0x5e, 0x4a, 0x97, 0x3e, 
	0x00, 0x36, 0x72, 0x3e, 0xb3, 0x88, 0xd3, 0x3d, 0x18, 0x33, 0xda, 0xbd, 
	0x03, 0x3e, 0xbe, 0x3d, 0xac, 0xe2, 0x8c, 0x3e, 0xd7, 0x56, 0x9a, 0x3c, 
	0x5b, 0xde, 0x65, 0x3d, 0x78, 0x09, 0x45, 0x3e, 0x35, 0xba, 0xc8, 0xbd, 
	0xdc, 0x84, 0xe4, 0xbd, 0xac, 0x5c, 0xdf, 0x3d, 0x6c, 0xd3, 0xc2, 0xbc, 
	0xcc, 0x47, 0x98, 0x3e, 0x3d, 0xe4, 0x5f, 0xbe, 0x6b, 0xb3, 0x8f, 0xbd, 
	0x17, 0x85, 0x87, 0x3e, 0x82, 0xeb, 0xe6, 0xbc, 0x4e, 0xcb, 0xf6, 0xbd, 
	0x74, 0xd3, 0x0a, 0xbe, 0xad, 0x67, 0xce, 0x3e, 0x20, 0x41, 0x88, 0x3e, 
	0xe1, 0x3e, 0xe0, 0x3d, 0x02, 0x45, 0xd6, 0x3d, 0x4e, 0xa7, 0x4e, 0x3e, 
	0x14, 0x34, 0xc7, 0x3e, 0xba, 0xa7, 0x1e, 0x3d, 0x8b, 0x8d, 0x56, 0x3e, 
	0x4a, 0x6d, 0x98, 0x3e, 0x65, 0x9c, 0xa0, 0xbd, 0x3f, 0xcc, 0xf0, 0xbe, 
	0xf3, 0x27, 0xfb, 0x3d, 0xec, 0xe9, 0x5a, 0x3c, 0xe2, 0xf3, 0xf5, 0x3d, 
	0x8d, 0xd4, 0x3c, 0x3e, 0x99, 0xd1, 0x20, 0xbd, 0x47, 0xea, 0x77, 0xbc, 
	0x78, 0xea, 0x35, 0x3e, 0x45, 0xca, 0x04, 0x3e, 0x4b, 0xe7, 0x1d, 0xbd, 
	0x3a, 0xf5, 0xb8, 0x3d, 0x5e, 0x4b, 0x1a, 0x3e, 0xfb, 0xf4, 0x1b, 0x3b, 
	0x05, 0x9b, 0x8a, 0x3c, 0x14, 0xa9, 0x14, 0x3e, 0xb2, 0x33, 0xa6, 0xbe, 
	0x7f, 0xc4, 0xb6, 0x3e, 0xbf, 0x16, 0x87, 0x3d, 0x17, 0x8d, 0x51, 0xbd, 
	0x10, 0xa7, 0xa0, 0x3e, 0x27, 0x60, 0xeb, 0xbe, 0x5b, 0x43, 0x85, 0x3e, 
	0xac, 0xe7, 0x9a, 0x3d, 0x11, 0x7a, 0x8b, 0x3e, 0x20, 0x0e, 0x26, 0x3e, 
	0xa8, 0x1c, 0xff, 0xbd, 0x44, 0x58, 0x1f, 0x3e, 0x89, 0x1b, 0x5d, 0x3e, 
	0xe9, 0x17, 0x4f, 0x3e, 0xa0, 0xba, 0x7d, 0x3d, 0xad, 0x41, 0x8a, 0xbe, 
	0x2b, 0x29, 0x51, 0x3e, 0x5c, 0x1d, 0xbe, 0x3d, 0x94, 0xe5, 0x54, 0xbe, 
	0x06, 0x99, 0x7e, 0xbd, 0x60, 0x97, 0xb0, 0x3d, 0xd8, 0x61, 0x8b, 0x3e, 
	0x49, 0x8c, 0x3a, 0xbe, 0xdf, 0x5c, 0x90, 0xbe, 0xbe, 0xba, 0xab, 0x3d, 
	0xb3, 0x39, 0xc8, 0xbd, 0xfa, 0xed, 0x5d, 0xbe, 0xc7, 0xbf, 0x3f, 0x3e, 
	0xa5, 0xd7, 0x4c, 0x3e, 0x78, 0xc8, 0xc8, 0x3d, 0xcd, 0x75, 0x02, 0x3e, 
	0xc9, 0xf6, 0x6d, 0x3d, 0xe5, 0x7b, 0x8b, 0xbd, 0x94, 0x67, 0xc1, 0x3d, 
	0xc6, 0x0c, 0xd7, 0xbe, 0x81, 0x76, 0x3f, 0xbe, 0x89, 0xcd, 0x89, 0x3d, 
	0xa4, 0xa4, 0xb1, 0x3d, 0x6c, 0xe7, 0x73, 0xbd, 0x98, 0xc6, 0xab, 0x3d, 
	0xd1, 0xf6, 0x05, 0x3e, 0xab, 0xea, 0x8d, 0x3e, 0x14, 0x43, 0x2b, 0xbe, 
	0xa2, 0xa6, 0x32, 0xbe, 0x48, 0xc3, 0xd6, 0x3d, 0x42, 0x91, 0x71, 0xbe, 
	0x31, 0x7a, 0x08, 0x3d, 0x20, 0xb3, 0x84, 0xbb, 0xaa, 0x9e, 0x09, 0x3d, 
	0xc5, 0x90, 0xc3, 0x3d, 0x03, 0xd2, 0x0c, 0x3f, 0x3d, 0x51, 0x9a, 0x3d, 
	0x50, 0xfd, 0x2a, 0xbe, 0x5b, 0xff, 0x36, 0xbd, 0xe5, 0x8b, 0x6b, 0xbe, 
	0x0e, 0x91, 0x39, 0xbe, 0x80, 0xea, 0x69, 0x3d, 0xa0, 0xd5, 0xff, 0xbd, 
	0x38, 0xf0, 0xd1, 0xbc, 0xcd, 0x05, 0xc0, 0xbe, 0x1a, 0x31, 0xfa, 0xbc, 
	0x53, 0xfd, 0x25, 0xbf, 0x1f, 0xe3, 0x9a, 0x3e, 0xe0, 0xa0, 0x70, 0xbe, 
	0xf5, 0xd8, 0xb8, 0xbe, 0xe4, 0x0c, 0x1e, 0x3d, 0x98, 0x43, 0xc7, 0xbd, 
	0x20, 0x53, 0x30, 0xbe, 0x23, 0x70, 0x4d, 0x3d, 0xf9, 0xc5, 0x1b, 0x3e, 
	0x68, 0x31, 0xa8, 0xbd, 0x71, 0x66, 0x43, 0x3e, 0x2f, 0x8e, 0x2a, 0xbf, 
	0x59, 0xc8, 0xb3, 0xbc, 0x7b, 0x27, 0xd8, 0xbe, 0xea, 0x03, 0x46, 0x3e, 
	0xa9, 0xa9, 0x19, 0xbc, 0x59, 0x28, 0x7f, 0xbd, 0xa8, 0xad, 0xb8, 0x3e, 
	0xa6, 0xa6, 0x10, 0x3e, 0x8f, 0x22, 0xde, 0x3e, 0xde, 0x73, 0x1c, 0xbe, 
	0xdf, 0xd5, 0x71, 0x3e, 0x68, 0x93, 0xa1, 0x3e, 0xb0, 0x49, 0x8f, 0xbe, 
	0x04, 0xe0, 0x87, 0x3e, 0xf1, 0x08, 0xaf, 0xbe, 0x3c, 0x3a, 0xdb, 0xbe, 
	0xe0, 0x43, 0x7e, 0xbe, 0x11, 0x9d, 0x84, 0x3d, 0xc1, 0x41, 0xe1, 0xbe, 
	0xb0, 0x7b, 0x0c, 0x3e, 0x83, 0x5c, 0x4d, 0x3e, 0x19, 0x5d, 0x18, 0xbe, 
	0x49, 0xc1, 0x54, 0xbe, 0xf5, 0xa2, 0x9d, 0xbe, 0xae, 0x00, 0xd3, 0xbe, 
	0x46, 0x5c, 0x2f, 0x3e, 0xb5, 0x2c, 0xc6, 0xbe, 0x40, 0x56, 0xc7, 0xbd, 
	0xe2, 0x50, 0xf2, 0xbc, 0x04, 0x8d, 0x01, 0xbe, 0x03, 0xdb, 0x25, 0x3e, 
	0x1a, 0x8d, 0x5e, 0x3e, 0x6a, 0xc6, 0x8b, 0xbd, 0x6f, 0xa5, 0x67, 0x3d, 
	0x4e, 0x06, 0x22, 0xbe, 0xee, 0x2b, 0xe3, 0x3d, 0x9c, 0x47, 0xea, 0x3c, 
	0x9f, 0xb3, 0xb0, 0xbd, 0x59, 0xbc, 0x44, 0xbd, 0x7e, 0xf9, 0xa4, 0x3e, 
	0xf4, 0xc2, 0xd0, 0xbd, 0x05, 0xda, 0x07, 0xbd, 0xed, 0x70, 0x92, 0xbe, 
	0xb0, 0xbe, 0xad, 0x3d, 0x14, 0x0d, 0xc6, 0x3d, 0x4b, 0x2f, 0x11, 0xbd, 
	0x70, 0xa3, 0x59, 0x3e, 0x24, 0x14, 0x14, 0xbf, 0x6f, 0x20, 0xff, 0xbe, 
	0xc0, 0xdc, 0x07, 0xbe, 0xdd, 0x80, 0x89, 0xbd, 0x0b, 0x86, 0xe3, 0xbe, 
	0xfa, 0x5b, 0xaf, 0x3d, 0xc4, 0xe2, 0xaf, 0xbe, 0x74, 0x3b, 0x99, 0x3e, 
	0x75, 0x00, 0x62, 0x3e, 0x93, 0xbc, 0x6a, 0xbd, 0xfb, 0x9c, 0xbc, 0x3d, 
	0x3e, 0x73, 0xac, 0xbe, 0x27, 0x91, 0x06, 0x3e, 0x42, 0xf7, 0x39, 0xbd, 
	0xca, 0xc7, 0xd7, 0xbd, 0xb5, 0xc2, 0x22, 0xbf, 0xb5, 0x95, 0x45, 0x3d, 
	0xa7, 0xf1, 0x87, 0xbe, 0xa9, 0x7b, 0x99, 0x3e, 0xbd, 0x38, 0x51, 0xbf, 
	0x20, 0xd5, 0xf9, 0x3d, 0x68, 0x33, 0xd3, 0x3d, 0x16, 0xa9, 0x40, 0xba, 
	0x2b, 0x5b, 0x5d, 0x3e, 0x67, 0x41, 0xdc, 0xbe, 0x09, 0xe9, 0xaf, 0x3e, 
	0x1d, 0xdb, 0xa1, 0xbd, 0x2e, 0xac, 0x82, 0xbe, 0x57, 0xbd, 0x82, 0x3e, 
	0x7a, 0x35, 0x69, 0xbe, 0x03, 0x85, 0x05, 0xbd, 0x14, 0x26, 0x75, 0xbe, 
	0x97, 0xf7, 0xd2, 0xbe, 0x98, 0x8b, 0x37, 0xbd, 0xcd, 0x58, 0x7a, 0xbe, 
	0xd9, 0x59, 0x03, 0xbe, 0xaa, 0xf3, 0x0b, 0xbf, 0x86, 0x5e, 0x07, 0x3e, 
	0xd1, 0xf7, 0x3b, 0x3e, 0x7e, 0x45, 0x65, 0xbe, 0x8d, 0x85, 0x8d, 0x3e, 
	0x80, 0xf8, 0xab, 0x3d, 0xe8, 0xe3, 0x92, 0x3e, 0x1c, 0x2a, 0x1c, 0xbf, 
	0x5a, 0xd2, 0xa9, 0x39, 0xef, 0xb2, 0xb2, 0xbd, 0xb0, 0x36, 0x82, 0x3d, 
	0x50, 0x34, 0xaf, 0xbd, 0xb5, 0x6e, 0x29, 0xbe, 0x6e, 0xe1, 0x43, 0x3d, 
	0xff, 0x53, 0x3d, 0x3e, 0xb5, 0x4c, 0x5a, 0xbe, 0x3f, 0x20, 0x95, 0x3d, 
	0xd2, 0x70, 0xb7, 0x3d, 0xed, 0xbd, 0x2a, 0xbe, 0xe8, 0x7a, 0xb7, 0xbe, 
	0x48, 0xb3, 0xcc, 0x3d, 0xaf, 0x73, 0x15, 0xbd, 0x35, 0x1e, 0xc3, 0x3e, 
	0x2d, 0x09, 0xd4, 0x3e, 0x8a, 0x0b, 0x63, 0xbe, 0x04, 0x5b, 0x46, 0x3c, 
	0x42, 0x1a, 0xb8, 0xbe, 0xcf, 0x67, 0xb5, 0xbd, 0x62, 0x0e, 0x69, 0xbd, 
	0x17, 0xaa, 0x11, 0xbf, 0x07, 0x1a, 0x24, 0x3e, 0x7f, 0xbf, 0x76, 0x3e, 
	0x2a, 0x39, 0x96, 0x3e, 0x0e, 0x38, 0x36, 0x3e, 0x6c, 0x68, 0x0d, 0x3e, 
	0x7d, 0xe1, 0xbb, 0xbe, 0xf4, 0xa8, 0x70, 0x3e, 0xaa, 0x93, 0xca, 0x3e, 
	0x93, 0x8e, 0xa1, 0xbd, 0x6c, 0xb8, 0x9c, 0x3e, 0x23, 0x33, 0x13, 0x3e, 
	0x21, 0x17, 0xea, 0xbb, 0xeb, 0xd7, 0x61, 0x3e, 0xe8, 0xc9, 0x51, 0xbe, 
	0x52, 0xef, 0x1c, 0x3e, 0xaa, 0x8a, 0xff, 0xbd, 0x8e, 0xa8, 0x28, 0x3d, 
	0x51, 0xc6, 0xcc, 0xbd, 0x2a, 0x40, 0xd9, 0x3c, 0x8f, 0xee, 0x68, 0x3e, 
	0x50, 0x59, 0x6b, 0xbd, 0x61, 0x75, 0xa8, 0xbd, 0x5e, 0x2f, 0x1f, 0x3f, 
	0x45, 0xab, 0x0d, 0x3d, 0xf5, 0x5b, 0x19, 0x3e, 0x29, 0x50, 0xca, 0x3e, 
	0xc0, 0xb8, 0xe9, 0x3c, 0xa3, 0xce, 0xaf, 0x3e, 0x46, 0x59, 0x1f, 0x3e, 
	0xb4, 0xa4, 0x92, 0x3d, 0x91, 0x3d, 0xca, 0x3c, 0xa0, 0xb8, 0x08, 0x3e, 
	0xd7, 0x07, 0x83, 0x3e, 0xc0, 0x49, 0x8a, 0xbd, 0xa4, 0x6e, 0x4f, 0x3e, 
	0xd1, 0xbb, 0x9e, 0xbe, 0x16, 0x98, 0x0d, 0xbd, 0x86, 0x98, 0xa0, 0x3d, 
	0x4e, 0xa8, 0x9b, 0xbe, 0x81, 0x5f, 0x92, 0xbd, 0x24, 0x37, 0xb2, 0xbe, 
	0x41, 0xdc, 0x91, 0x3e, 0x0e, 0xbc, 0xdb, 0x3c, 0xd4, 0xf8, 0xa7, 0x3e, 
	0x10, 0x16, 0x1d, 0xbe, 0x21, 0x55, 0x7c, 0x3e, 0x62, 0x77, 0x59, 0x3e, 
	0xc6, 0x5a, 0x57, 0xbd, 0x4e, 0x07, 0x0e, 0xbe, 0xe6, 0xe8, 0xa3, 0xbd, 
	0xdc, 0x15, 0x54, 0x3e, 0x23, 0x20, 0xc9, 0x3e, 0xff, 0x4e, 0x61, 0x3d, 
	0x85, 0xbb, 0x85, 0xbd, 0x98, 0xe6, 0xb3, 0x3e, 0x1f, 0x93, 0xea, 0xbd, 
	0x0f, 0xc1, 0x04, 0xbd, 0x0d, 0xcd, 0xb7, 0xbd, 0xe5, 0x78, 0x1e, 0x3e, 
	0x02, 0xf0, 0x46, 0xbe, 0x1b, 0xfc, 0x33, 0xbe, 0x76, 0xa1, 0xd0, 0x3c, 
	0x71, 0xb3, 0x80, 0xbd, 0x71, 0x94, 0x53, 0x3e, 0x9f, 0x8b, 0x48, 0xbe, 
	0xba, 0x07, 0x27, 0xbe, 0x85, 0x88, 0x21, 0x3e, 0xc5, 0x59, 0xb6, 0xbd, 
	0x43, 0x0a, 0x19, 0x3e, 0xf9, 0x30, 0xc1, 0xbe, 0xcc, 0xeb, 0xa8, 0x3e, 
	0x0e, 0x65, 0x0a, 0x3f, 0xf4, 0x2c, 0x89, 0xbe, 0x6a, 0xc8, 0x27, 0x3e, 
	0x5a, 0x8b, 0x09, 0xbe, 0x79, 0x8d, 0x94, 0x3e, 0x8f, 0x2a, 0xef, 0x3e, 
	0x2a, 0x4f, 0x86, 0xbe, 0xe4, 0xfe, 0xf9, 0x3d, 0x1b, 0x8b, 0x2f, 0xbe, 
	0xaa, 0xcc, 0x9f, 0xbe, 0xa6, 0x42, 0x18, 0xbe, 0xde, 0x9f, 0x01, 0xbe, 
	0xb9, 0x2e, 0x3d, 0xbe, 0xc2, 0x12, 0xf1, 0x3b, 0x56, 0x45, 0xcc, 0xbc, 
	0xc2, 0x0c, 0x7d, 0x3e, 0xbb, 0x4f, 0xc6, 0xbe, 0xb1, 0x93, 0x2c, 0x3c, 
	0x7c, 0xcb, 0xda, 0x3e, 0xa0, 0x05, 0x66, 0x3e, 0x43, 0xb3, 0xf3, 0x3d, 
	0xbd, 0xe2, 0x13, 0x3d, 0x82, 0xb4, 0x72, 0x3e, 0x86, 0xb8, 0x4b, 0x3e, 
	0x7e, 0xaa, 0xa0, 0xbc, 0xd3, 0x49, 0xc1, 0xbc, 0x76, 0xb4, 0xa6, 0xbd, 
	0xa9, 0x1a, 0xe6, 0x3d, 0x3e, 0xdd, 0xe7, 0xbc, 0x78, 0xe9, 0x40, 0x3e, 
	0xe3, 0x29, 0xbb, 0x3e, 0x0f, 0x9a, 0x94, 0xbe, 0xa7, 0x1e, 0xfc, 0x3d, 
	0x22, 0xee, 0xaa, 0xbe, 0x82, 0x70, 0xae, 0x3d, 0x8a, 0xd0, 0x06, 0x3f, 
	0x46, 0xc2, 0x0a, 0x3e, 0xed, 0x19, 0xff, 0x3c, 0x1a, 0x21, 0x95, 0x3d, 
	0x3e, 0xe6, 0x7b, 0x3e, 0xf0, 0x70, 0x04, 0x3e, 0x4e, 0xca, 0x34, 0xbd, 
	0x56, 0x9b, 0xc9, 0x3e, 0x7a, 0x52, 0xe7, 0x3d, 0xcc, 0x75, 0x86, 0x3e, 
	0x00, 0xed, 0xe5, 0x3e, 0x60, 0x91, 0xa1, 0x3d, 0x79, 0xd9, 0x13, 0x3e, 
	0xff, 0x9a, 0xf5, 0xbd, 0xf4, 0x3e, 0xa9, 0xbe, 0x6e, 0xd5, 0xfb, 0xbd, 
	0x9c, 0xd7, 0xa8, 0x3d, 0x94, 0x8a, 0x5a, 0xbe, 0xea, 0x62, 0x48, 0xbe, 
	0xae, 0xf7, 0xda, 0xbd, 0x59, 0x6c, 0x67, 0x3e, 0x2a, 0x7d, 0x72, 0x3e, 
	0xa7, 0x02, 0x30, 0x3e, 0x36, 0xa3, 0x91, 0xbe, 0x99, 0xbf, 0xcf, 0xbe, 
	0x55, 0xa4, 0x12, 0xbe, 0xa5, 0x56, 0xbb, 0xbe, 0x84, 0xf4, 0xe3, 0xbd, 
	0xb3, 0x4e, 0x9e, 0x3d, 0xc7, 0x42, 0x56, 0xbe, 0x23, 0x8c, 0xe7, 0x3d, 
	0x4f, 0xe4, 0xfa, 0x3d, 0x9b, 0x9c, 0xa2, 0xbe, 0x9c, 0xbb, 0x1c, 0x3e, 
	0xb2, 0xde, 0x85, 0xbe, 0x16, 0x83, 0xa5, 0x3e, 0x05, 0xf0, 0xc0, 0xbd, 
	0xae, 0x51, 0x9b, 0x3d, 0x05, 0x14, 0x4a, 0x3d, 0x93, 0xdb, 0xb8, 0x3b, 
	0x2c, 0xc5, 0x28, 0x3e, 0x6d, 0xcd, 0x4e, 0xbd, 0x61, 0x50, 0x91, 0x3d, 
	0x85, 0x14, 0x18, 0x3d, 0x6d, 0xed, 0x26, 0xbf, 0x77, 0xa9, 0xde, 0x3e, 
	0xf0, 0xdb, 0xfb, 0xbd, 0x06, 0x47, 0xa4, 0xbd, 0xa0, 0x93, 0x0f, 0xbe, 
	0x06, 0x04, 0x69, 0xbe, 0xb0, 0x96, 0x99, 0x3e, 0xc4, 0x2b, 0x06, 0xbf, 
	0x0f, 0x0c, 0x99, 0xbe, 0xa1, 0x95, 0x1d, 0x3e, 0x13, 0x5f, 0x75, 0xbe, 
	0x8e, 0xe7, 0xcb, 0xbd, 0xfb, 0x74, 0xb2, 0x3d, 0xb1, 0x56, 0x17, 0xbe, 
	0x3b, 0x01, 0xd0, 0x3e, 0x90, 0xe1, 0xbc, 0x3d, 0x0a, 0xf4, 0xa1, 0x3e, 
	0x86, 0x8a, 0x6d, 0x3e, 0x76, 0x58, 0x3b, 0x3e, 0x2f, 0x8a, 0xbc, 0x3c, 
	0x6a, 0x05, 0xa7, 0xbe, 0x28, 0x7d, 0x36, 0x3d, 0x04, 0xe3, 0x8d, 0x3c, 
	0xeb, 0x76, 0x9e, 0xbe, 0xee, 0xa7, 0x7d, 0xbe, 0x4f, 0xbf, 0x07, 0xbe, 
	0x14, 0x9a, 0x34, 0x3d, 0x9c, 0xb9, 0x83, 0xbe, 0x79, 0x2b, 0x60, 0xbd, 
	0xb1, 0x03, 0xdc, 0xbd, 0x14, 0xb1, 0x05, 0xbe, 0xb8, 0x23, 0x0a, 0xbe, 
	0x3d, 0xef, 0x80, 0xbe, 0x02, 0xf2, 0xa7, 0x3e, 0x39, 0x16, 0x9d, 0x3d, 
	0xb4, 0x0f, 0x04, 0x3f, 0x2d, 0x30, 0xe5, 0xbc, 0x8a, 0x0d, 0x47, 0xbd, 
	0x4e, 0xee, 0xa1, 0xbe, 0x46, 0x5e, 0x95, 0xbe, 0xc7, 0x1a, 0xac, 0xbe, 
	0x7b, 0xed, 0xf4, 0x3d, 0xf6, 0x29, 0x96, 0x3e, 0x84, 0xe4, 0xd0, 0xbd, 
	0x43, 0x9d, 0xa2, 0xbd, 0x22, 0x5f, 0x4e, 0x3d, 0x71, 0xc0, 0x29, 0xbe, 
	0x08, 0xf8, 0xea, 0x3d, 0xfa, 0x0a, 0x41, 0xbd, 0x5a, 0xca, 0x9a, 0xbd, 
	0x17, 0x92, 0x0a, 0x3d, 0xd5, 0x84, 0x94, 0x3d, 0x05, 0xf6, 0xa0, 0x3d, 
	0xb0, 0x72, 0x71, 0x3e, 0xa3, 0x0e, 0x96, 0xbd, 0xac, 0x84, 0xdf, 0xbd, 
	0xba, 0xf7, 0xa0, 0x3e, 0xcc, 0x45, 0x51, 0xbd, 0xcd, 0x53, 0x8b, 0x3e, 
	0x64, 0x89, 0x09, 0x3e, 0xbe, 0x52, 0x2a, 0xbe, 0xb6, 0x0f, 0x30, 0x3e, 
	0x85, 0x45, 0x2f, 0x3e, 0x23, 0x98, 0x4a, 0x3e, 0x7d, 0x5f, 0x40, 0xbe, 
	0x3f, 0xcf, 0x8e, 0x3d, 0x16, 0x99, 0x1b, 0xbe, 0x1e, 0xd2, 0x75, 0x3c, 
	0x9e, 0x1e, 0xbc, 0xbd, 0x12, 0xee, 0x90, 0x3d, 0x90, 0x1d, 0x97, 0x3d, 
	0x00, 0xf4, 0x71, 0x3e, 0x89, 0x55, 0x18, 0x3d, 0xc5, 0x4c, 0x9f, 0xbe, 
	0x44, 0x97, 0xb0, 0x3d, 0x16, 0xfa, 0xa7, 0x3c, 0x30, 0xf4, 0x89, 0xbe, 
	0x60, 0x31, 0x85, 0x3d, 0x47, 0xda, 0x52, 0xbd, 0xe9, 0x7c, 0x24, 0x3e, 
	0x14, 0xcb, 0x97, 0x3e, 0x99, 0xba, 0x1a, 0xbd, 0x39, 0x0f, 0x5a, 0xbc, 
	0x2c, 0xf8, 0x7a, 0xbe, 0xb9, 0x5c, 0x1e, 0xbe, 0x8b, 0x40, 0xa9, 0x3d, 
	0xbc, 0x24, 0xb2, 0x3d, 0x0f, 0x27, 0x48, 0x3e, 0x60, 0x09, 0x85, 0xbe, 
	0x77, 0xbc, 0x99, 0xbc, 0x78, 0xe1, 0x2e, 0x3e, 0x22, 0x22, 0xc7, 0x3c, 
	0xcd, 0xe7, 0xcb, 0xbb, 0xe7, 0x7b, 0x69, 0xbe, 0x0d, 0x09, 0xe7, 0x3d, 
	0xff, 0xca, 0x7a, 0xbe, 0xcf, 0xab, 0xfc, 0xbd, 0x71, 0x6b, 0x11, 0x3e, 
	0x63, 0xb7, 0x97, 0x3e, 0x6f, 0x62, 0xd6, 0x3e, 0x50, 0x28, 0x18, 0x3e, 
	0x17, 0xb6, 0x4b, 0x3c, 0xe3, 0xf2, 0xd8, 0xbc, 0x9a, 0x11, 0xea, 0xbe, 
	0x6e, 0x1d, 0xd4, 0xbc, 0x27, 0x51, 0x67, 0xbe, 0x1c, 0x53, 0xa6, 0x3d, 
	0x76, 0x07, 0xb7, 0xbc, 0x2e, 0xcc, 0x25, 0xbe, 0xa5, 0x69, 0xc0, 0x3e, 
	0xde, 0xeb, 0x27, 0x3e, 0xd7, 0x94, 0xaf, 0xbe, 0x8e, 0xc4, 0xaf, 0xbd, 
	0x83, 0x28, 0x1c, 0x3f, 0x28, 0xe6, 0xe9, 0x3d, 0x58, 0x54, 0x05, 0x3e, 
	0xc3, 0x25, 0x46, 0x3e, 0x7b, 0x56, 0x8e, 0x3e, 0x9c, 0xd7, 0x7b, 0x3e, 
	0xde, 0xaf, 0x4c, 0x3e, 0xfd, 0x63, 0x97, 0x3e, 0x04, 0xb3, 0x93, 0x3d, 
	0x0f, 0x4c, 0x37, 0xbe, 0xe1, 0x22, 0x17, 0x3e, 0xb2, 0xb2, 0x6f, 0x3d, 
	0x08, 0xda, 0x67, 0x3d, 0xe0, 0xb0, 0x0f, 0xbe, 0xb2, 0x27, 0x83, 0xbd, 
	0x25, 0x71, 0xd2, 0x3e, 0x30, 0xd2, 0xf7, 0x3d, 0x38, 0x5c, 0xb2, 0xbd, 
	0xd6, 0x42, 0x23, 0x3f, 0x43, 0x3a, 0xd4, 0xbd, 0xfd, 0xe4, 0x2e, 0x3e, 
	0xff, 0x37, 0xf0, 0xbc, 0x52, 0xbf, 0xa7, 0x3e, 0x00, 0xe2, 0x95, 0x3e, 
	0x0c, 0xee, 0x31, 0x3e, 0x11, 0xcb, 0xae, 0x3e, 0xee, 0x1b, 0xf8, 0x3d, 
	0x48, 0xfb, 0xfa, 0xbc, 0x50, 0xaf, 0x13, 0xbe, 0xfb, 0x47, 0x3f, 0xbd, 
	0xb8, 0x31, 0x9b, 0xbe, 0xf3, 0xdd, 0xfa, 0xbc, 0xad, 0x81, 0x26, 0x3e, 
	0xce, 0xa3, 0x6c, 0x3d, 0xfe, 0x8e, 0x8e, 0x3e, 0x76, 0x89, 0xed, 0x3d, 
	0x6b, 0x79, 0x6c, 0x3e, 0xc2, 0x71, 0x3f, 0x3d, 0x1e, 0x1f, 0x87, 0xbd, 
	0x13, 0x0e, 0x31, 0x3d, 0x30, 0xd3, 0xe6, 0xbd, 0x69, 0x95, 0xdd, 0xbd, 
	0x59, 0xc0, 0x71, 0x3e, 0x63, 0x72, 0xb7, 0xbc, 0x87, 0xa0, 0xfc, 0x3d, 
	0x1e, 0x4c, 0x4e, 0xbc, 0xba, 0x4a, 0x55, 0x3e, 0x9c, 0x04, 0x39, 0x3e, 
	0x2d, 0x90, 0x1a, 0xbf, 0x86, 0x37, 0x7d, 0x3d, 0x32, 0x6d, 0xb8, 0x3d, 
	0x01, 0x5f, 0x13, 0xbd, 0x72, 0xa1, 0x12, 0xbe, 0xf5, 0x41, 0x38, 0x3e, 
	0x04, 0x3f, 0x9e, 0x3c, 0x5d, 0x05, 0xa7, 0x3e, 0x6e, 0xb7, 0x96, 0xbd, 
	0x9c, 0xee, 0xde, 0xbe, 0x66, 0x1c, 0xb2, 0x3d, 0x87, 0xb6, 0xc4, 0x3d, 
	0x50, 0xb8, 0xa3, 0x3e, 0x0e, 0xa5, 0xa5, 0x3e, 0xf9, 0x1e, 0x3f, 0xbe, 
	0x2f, 0xb7, 0x5c, 0x3e, 0xd1, 0xd3, 0xae, 0xbc, 0xd1, 0xdc, 0x18, 0xbf, 
	0x08, 0xc4, 0x81, 0x3e, 0x25, 0xfa, 0x5c, 0x3e, 0x02, 0x50, 0x45, 0xbe, 
	0xa6, 0x24, 0xca, 0xbd, 0x73, 0xda, 0xa8, 0xbe, 0xaa, 0x9e, 0xd5, 0xbc, 
	0xec, 0x49, 0xc1, 0xbe, 0x09, 0x15, 0xd1, 0x3d, 0xda, 0x47, 0xe0, 0x3e, 
	0x2f, 0xa6, 0xd4, 0x3e, 0xc1, 0x41, 0xe1, 0x3d, 0x56, 0x4f, 0x7d, 0x3d, 
	0x41, 0xc5, 0x13, 0xbd, 0x38, 0x74, 0x12, 0x3f, 0x10, 0xe7, 0x0b, 0xbe, 
	0xbe, 0xb9, 0x7d, 0x3d, 0x17, 0xc8, 0x78, 0x3e, 0x52, 0x25, 0x9a, 0x3e, 
	0x1f, 0x39, 0x3d, 0xbe, 0xb0, 0x5a, 0xdc, 0x3d, 0xe4, 0x75, 0x37, 0xbe, 
	0x0f, 0x74, 0x67, 0xbe, 0x49, 0xb8, 0x48, 0x3e, 0x21, 0x00, 0x01, 0x3f, 
	0x3f, 0xa5, 0xcb, 0x3c, 0x3e, 0x07, 0x66, 0xbd, 0x9d, 0xc6, 0xff, 0xbe, 
	0xad, 0xda, 0x97, 0xbe, 0x57, 0xd0, 0x2b, 0x3e, 0x8a, 0x2e, 0x92, 0xbe, 
	0xbc, 0x5c, 0x4a, 0xbe, 0x11, 0xb1, 0x29, 0xbe, 0x1f, 0xac, 0xc2, 0x3d, 
	0x4b, 0xa8, 0xe3, 0x3d, 0x60, 0xe3, 0x1b, 0x3e, 0xe4, 0xbe, 0x62, 0xbe, 
	0x06, 0x43, 0x1a, 0x3e, 0x9d, 0x41, 0xb0, 0xbd, 0xcc, 0xb4, 0xb5, 0x3d, 
	0xa2, 0x1d, 0xdd, 0xbd, 0x15, 0xc1, 0x6d, 0x3e, 0x5f, 0xdf, 0x80, 0x3e, 
	0x46, 0x1d, 0x7d, 0xbe, 0xf7, 0xdb, 0xae, 0x3e, 0x00, 0xe5, 0xa7, 0x3d, 
	0x18, 0xd4, 0x05, 0x3e, 0xe3, 0xe2, 0xfc, 0xbd, 0x2f, 0x87, 0x10, 0x3e, 
	0xe3, 0x61, 0x58, 0xbe, 0x23, 0x6f, 0x9f, 0x3e, 0x2d, 0x26, 0x6d, 0x3e, 
	0xf4, 0xb9, 0x4d, 0xbe, 0x22, 0x35, 0x17, 0xbf, 0x32, 0xbf, 0x9c, 0x3e, 
	0xa8, 0x55, 0x07, 0x3e, 0x7a, 0x73, 0x66, 0xbe, 0xe8, 0xd9, 0x3d, 0xbe, 
	0x53, 0x91, 0xdd, 0xbe, 0xdb, 0x78, 0x5e, 0x3e, 0xf2, 0x31, 0xb9, 0xbe, 
	0x1b, 0xa3, 0x04, 0x3e, 0xb3, 0x11, 0xf9, 0xbc, 0x2e, 0x13, 0x90, 0xbc, 
	0x3e, 0x31, 0xe5, 0x3e, 0xa5, 0x6a, 0x84, 0xbe, 0x48, 0x55, 0xdb, 0xbd, 
	0x2b, 0x31, 0x4d, 0xbe, 0xf5, 0x3c, 0xe6, 0xbe, 0x46, 0x59, 0x49, 0xbc, 
	0x5e, 0xda, 0x52, 0x3e, 0x63, 0xa6, 0xbe, 0x3d, 0x28, 0xad, 0x5b, 0x3e, 
	0x27, 0x71, 0xc4, 0xbd, 0xd2, 0xa8, 0xa9, 0x3c, 0x1b, 0xa8, 0x44, 0x3e, 
	0xb2, 0xf8, 0xb2, 0xbc, 0x2e, 0x72, 0x3f, 0x3c, 0xc9, 0xca, 0x2f, 0x3d, 
	0x43, 0x69, 0x2a, 0x3e, 0x7b, 0x5b, 0xed, 0x3d, 0xdb, 0xa9, 0x28, 0xbe, 
	0x6f, 0x71, 0x89, 0x3e, 0x4f, 0x47, 0x1e, 0x3d, 0xe7, 0x62, 0x62, 0x3c, 
	0x16, 0xe0, 0x78, 0xbe, 0xad, 0x9c, 0xa0, 0xbe, 0x87, 0x36, 0x42, 0xbe, 
	0xd6, 0xf2, 0x0b, 0x3e, 0x3c, 0x2f, 0xcf, 0xbe, 0xb7, 0x4b, 0xf1, 0xbe, 
	0x7a, 0xd5, 0xb0, 0xbd, 0xfd, 0xb0, 0xc1, 0x3e, 0xaf, 0x42, 0x43, 0xbe, 
	0x60, 0x14, 0x2d, 0x3e, 0x62, 0x16, 0x44, 0x3e, 0xd0, 0x7b, 0x02, 0x3e, 
	0xcf, 0x5e, 0xf2, 0xbe, 0x7b, 0xe7, 0xc9, 0xbe, 0x77, 0x56, 0xaf, 0xbc, 
	0x1c, 0xb3, 0xa6, 0x3e, 0x75, 0x5f, 0x89, 0xb9, 0x4c, 0xda, 0x38, 0xbe, 
	0x81, 0x79, 0x2e, 0xbe, 0x3d, 0x1b, 0x05, 0x3e, 0xfb, 0xf7, 0xb9, 0x3a, 
	0x30, 0x1e, 0x1e, 0x3e, 0x1f, 0xb8, 0x2c, 0x3e, 0x4c, 0x2e, 0x57, 0xbe, 
	0x92, 0x47, 0xa1, 0x3d, 0x50, 0x37, 0x4f, 0x3d, 0xe5, 0x6c, 0x07, 0xbe, 
	0xf9, 0xb6, 0x9e, 0x3e, 0xff, 0x64, 0xe5, 0x3e, 0xdd, 0xbe, 0x23, 0xbe, 
	0x31, 0x68, 0x16, 0xbe, 0xec, 0x0d, 0x7f, 0xb9, 0x87, 0xf0, 0x6a, 0xbe, 
	0xf9, 0x10, 0x73, 0xbe, 0x5d, 0x3f, 0xaf, 0xbd, 0xa9, 0x63, 0x64, 0x3e, 
	0xc8, 0xe7, 0x27, 0x3d, 0xb2, 0xe1, 0x1c, 0xbe, 0x34, 0xf6, 0x96, 0xbd, 
	0x34, 0xb0, 0x0f, 0x3f, 0x4d, 0xb1, 0xde, 0xbe, 0x56, 0x24, 0xa2, 0x3e, 
	0xd3, 0xe3, 0x01, 0x3f, 0x13, 0x56, 0xbf, 0xbe, 0xc3, 0xbc, 0x1f, 0xbb, 
	0x3e, 0x83, 0xcf, 0x3e, 0xfb, 0xe0, 0x54, 0x3e, 0x34, 0x90, 0x30, 0x3e, 
	0x01, 0x9c, 0xb8, 0xbe, 0x7e, 0x7b, 0x10, 0x3c, 0x3e, 0x8c, 0xb0, 0xbe, 
	0x77, 0x46, 0xba, 0xbd, 0xac, 0xa6, 0xf0, 0xbd, 0x33, 0x3e, 0x89, 0x3c, 
	0x02, 0x0a, 0xb6, 0x3d, 0x51, 0x54, 0x94, 0x3c, 0xb0, 0x00, 0x56, 0xbe, 
	0x3e, 0x4d, 0x3c, 0xbd, 0xc8, 0x27, 0x8d, 0xbe, 0x10, 0x68, 0x0d, 0xbd, 
	0x91, 0x74, 0x11, 0x3f, 0x88, 0x4e, 0xc4, 0x3e, 0x14, 0x13, 0xe1, 0x3d, 
	0x83, 0x7e, 0x3c, 0x3e, 0x57, 0x37, 0x96, 0x3e, 0x9a, 0xe3, 0xb9, 0x3e, 
	0xeb, 0xa7, 0x5a, 0x3e, 0xb0, 0x38, 0x9d, 0x3e, 0x90, 0xa2, 0x86, 0x3d, 
	0x43, 0x29, 0x4d, 0x3d, 0x1e, 0xd2, 0xe0, 0xbe, 0x0d, 0x5d, 0xa7, 0xbe, 
	0x4c, 0x26, 0x58, 0x3b, 0xf9, 0x03, 0x4a, 0xbe, 0xe9, 0x07, 0x8e, 0xbe, 
	0xf1, 0x19, 0xe3, 0xbe, 0xd8, 0x5f, 0x56, 0x3e, 0x19, 0xc0, 0x19, 0x3e, 
	0x89, 0x8d, 0xc5, 0x3e, 0x84, 0x43, 0x55, 0xbe, 0x38, 0xbd, 0xcb, 0xbd, 
	0xe4, 0x21, 0xba, 0x3e, 0x6a, 0xc2, 0x7a, 0x3e, 0x3c, 0xc2, 0x74, 0xbd, 
	0x80, 0x23, 0x50, 0x3e, 0x91, 0xf9, 0x43, 0x3e, 0x1f, 0xd3, 0xdc, 0x3e, 
	0xe4, 0x69, 0x8c, 0x3e, 0xe8, 0xb7, 0x7f, 0xbd, 0x68, 0x76, 0x40, 0x3e, 
	0x9a, 0x65, 0x6c, 0xbe, 0x12, 0xe2, 0xe0, 0xbd, 0x43, 0xaa, 0x2d, 0xbe, 
	0x6f, 0x6b, 0x16, 0xbd, 0xc2, 0xf8, 0x29, 0xbe, 0x16, 0x3a, 0x45, 0x3e, 
	0x9e, 0xa2, 0x94, 0x3d, 0xb4, 0xbf, 0x82, 0xbc, 0xa6, 0x99, 0x41, 0x3e, 
	0xdd, 0xb3, 0xbb, 0x3d, 0x41, 0x16, 0xb1, 0x3d, 0x45, 0xbc, 0xc4, 0xbe, 
	0xac, 0x46, 0x36, 0xbe, 0xac, 0xb4, 0x89, 0x38, 0xcc, 0x0e, 0xc8, 0xbe, 
	0xe0, 0xbd, 0x5d, 0xbe, 0x89, 0x20, 0x06, 0xbf, 0x54, 0x44, 0x91, 0xbe, 
	0x63, 0x4b, 0x70, 0xbd, 0xff, 0x97, 0x68, 0x3d, 0x24, 0xe1, 0x43, 0x3e, 
	0xd0, 0xd8, 0x29, 0xbe, 0x48, 0xac, 0x85, 0x3e, 0xee, 0x2b, 0x92, 0xbf, 
	0x10, 0x55, 0x00, 0x3e, 0x01, 0x07, 0x60, 0xbd, 0xfe, 0x44, 0xbf, 0xbd, 
	0xb4, 0x15, 0x58, 0x3c, 0xc8, 0x80, 0x88, 0xbe, 0x46, 0x80, 0x35, 0x3e, 
	0x46, 0x4f, 0x87, 0xbe, 0x74, 0x87, 0x5c, 0xbe, 0x1b, 0x63, 0x72, 0x3e, 
	0x2d, 0x69, 0x9e, 0x3e, 0x69, 0xd2, 0x46, 0xbf, 0xb4, 0xb5, 0x9c, 0xbe, 
	0x33, 0x26, 0x1f, 0xbf, 0x77, 0x84, 0xd2, 0x3d, 0x00, 0xee, 0x81, 0xbf, 
	0x58, 0x9c, 0x59, 0x3d, 0xeb, 0x01, 0xc6, 0x3b, 0x6b, 0x91, 0xb5, 0x3c, 
	0xbd, 0x24, 0x21, 0x3e, 0x72, 0x88, 0x2b, 0x3e, 0x2f, 0x12, 0xf2, 0xbd, 
	0x60, 0x0a, 0x6b, 0x3e, 0x6d, 0xb8, 0x0e, 0xbe, 0x7b, 0x35, 0x6f, 0x3d, 
	0x0f, 0xc1, 0xe9, 0x3d, 0x9a, 0xda, 0xb0, 0x3d, 0x4b, 0x1b, 0x5b, 0x3e, 
	0xa0, 0xbe, 0xe1, 0xbd, 0x34, 0x9d, 0x7a, 0xbe, 0x87, 0xa0, 0x16, 0xbe, 
	0x0e, 0xd7, 0xd6, 0xbd, 0xd5, 0x36, 0xf1, 0x3d, 0xf9, 0xca, 0x52, 0x3e, 
	0x3e, 0x39, 0x30, 0x3e, 0x6c, 0xbf, 0x38, 0xbe, 0xbd, 0xa7, 0xf1, 0xbe, 
	0x99, 0x15, 0x50, 0xbe, 0x8d, 0xf3, 0x8a, 0xbd, 0x1f, 0xd7, 0x7c, 0x3e, 
	0xb3, 0x75, 0x38, 0x3e, 0xd8, 0x7c, 0x85, 0xbe, 0x92, 0xb3, 0x60, 0xbe, 
	0xb9, 0xfa, 0xac, 0xbe, 0xbe, 0x89, 0x3f, 0x3e, 0xda, 0x44, 0x6d, 0x3e, 
	0x3c, 0xc0, 0x06, 0xbf, 0x5c, 0x85, 0x14, 0xbd, 0xfe, 0x93, 0x15, 0xbc, 
	0xa8, 0x58, 0x02, 0xbd, 0x78, 0xb1, 0xff, 0xbc, 0x7a, 0x97, 0xa0, 0xbe, 
	0x83, 0x4c, 0x45, 0xbe, 0x77, 0x16, 0xbe, 0xbe, 0x64, 0xf6, 0x31, 0xbe, 
	0xa5, 0xfe, 0x9c, 0xbe, 0x0e, 0xc1, 0xa3, 0xbe, 0x04, 0x2b, 0x1e, 0xbe, 
	0xbb, 0xee, 0x89, 0x3d, 0x4a, 0xed, 0xb0, 0xbe, 0x7c, 0xcc, 0x31, 0x3e, 
	0xaf, 0x88, 0xf2, 0x3d, 0xce, 0x5b, 0x0d, 0xbe, 0x43, 0xe3, 0xdd, 0x3c, 
	0x97, 0x70, 0x11, 0x3e, 0x0c, 0xfe, 0x9f, 0xbd, 0xbf, 0x34, 0x75, 0x3e, 
	0x1e, 0xaf, 0x56, 0xbe, 0x81, 0xd1, 0x48, 0xbe, 0x92, 0x7e, 0x9a, 0xbb, 
	0x34, 0x53, 0x0e, 0xbe, 0xfc, 0xe5, 0x35, 0xbe, 0xd2, 0x49, 0xb1, 0xbe, 
	0xf6, 0xb7, 0x1e, 0x3f, 0x05, 0x1e, 0xab, 0xbe, 0x20, 0x4c, 0xc2, 0xbe, 
	0xcf, 0x7b, 0x70, 0xbe, 0xf1, 0x13, 0x73, 0x3e, 0xa3, 0xa1, 0xe3, 0x3e, 
	0x46, 0xd7, 0xab, 0x3d, 0xe3, 0xbd, 0x11, 0xbe, 0xc5, 0xfc, 0x80, 0x3e, 
	0xcc, 0x7b, 0x98, 0xbe, 0x12, 0xef, 0x66, 0xbd, 0xcf, 0x47, 0x05, 0x3d, 
	0xe5, 0xf9, 0x88, 0xbc, 0x67, 0x0a, 0xf0, 0x3e, 0x95, 0xfd, 0x7c, 0x3e, 
	0xb1, 0x72, 0x71, 0x3e, 0xb5, 0x40, 0x8a, 0xbd, 0x96, 0x11, 0x54, 0xbe, 
	0x52, 0xec, 0x18, 0xbf, 0xab, 0xa7, 0x85, 0xbd, 0x9b, 0x46, 0xb4, 0xbe, 
	0xd6, 0x53, 0x9e, 0x3c, 0xe6, 0x91, 0x31, 0xbe, 0x76, 0x0c, 0x2a, 0xbf, 
	0xf9, 0x23, 0xff, 0xbd, 0xc7, 0x09, 0x60, 0x3e, 0x80, 0x2a, 0x93, 0xbe, 
	0xee, 0xdd, 0x3c, 0xbe, 0xd9, 0x2b, 0xf5, 0xbd, 0x96, 0xab, 0x4a, 0xbe, 
	0xb6, 0xef, 0x89, 0xb9, 0x50, 0xfb, 0x59, 0xbe, 0xf9, 0x6e, 0xca, 0xbc, 
	0xc2, 0x3a, 0x5e, 0x3e, 0x8e, 0x5b, 0x36, 0x3f, 0x04, 0x42, 0x4d, 0x3e, 
	0x99, 0xe0, 0x94, 0xbe, 0x3b, 0x6e, 0x05, 0xbf, 0xa0, 0xa7, 0xe3, 0xbc, 
	0x84, 0xdf, 0x3f, 0xbd, 0x9b, 0x0b, 0xce, 0xbc, 0x09, 0x55, 0xe0, 0x3d, 
	0x00, 0x00, 0x06, 0x00, 0x08, 0x00, 0x04, 0x00, 0x06, 0x00, 0x00, 0x00, 
	0x04, 0x00, 0x00, 0x00, 0x80, 0x00, 0x00, 0x00, 0x27, 0x85, 0xa8, 0xbe, 
	0x59, 0x02, 0x5e, 0x3f, 0xf3, 0x2b, 0xa9, 0x3f, 0x6e, 0x6b, 0x2c, 0xbf, 
	0x33, 0x9f, 0x07, 0xbf, 0x64, 0x7b, 0xc9, 0x3e, 0x08, 0x43, 0x51, 0x3f, 
	0x78, 0x27, 0x29, 0xbf, 0x95, 0xfb, 0xbf, 0xbe, 0xb3, 0xb7, 0xaa, 0x3e, 
	0xd3, 0xcc, 0x22, 0xbf, 0x56, 0xd7, 0x7f, 0xbf, 0xb2, 0x4c, 0xf2, 0xbe, 
	0x61, 0xe7, 0x00, 0x3e, 0xdd, 0xdc, 0x90, 0x3e, 0x47, 0xc9, 0xc1, 0x3d, 
	0xf4, 0xef, 0x46, 0x3f, 0x82, 0xc2, 0x15, 0xbf, 0x8f, 0x4e, 0xc1, 0xbe, 
	0xa9, 0xaf, 0x00, 0x3f, 0xe9, 0x67, 0x2c, 0x3f, 0xbd, 0x58, 0x30, 0x3f, 
	0x90, 0x82, 0x96, 0xbe, 0x82, 0x15, 0x0f, 0xbf, 0xaf, 0xfb, 0x51, 0x3f, 
	0x9a, 0xd1, 0xec, 0x3e, 0xc3, 0x40, 0x10, 0xbf, 0x77, 0xb0, 0x8d, 0xbf, 
	0xd5, 0xf5, 0x0e, 0x3f, 0x40, 0xeb, 0x60, 0xbf, 0x7d, 0x15, 0x1c, 0x3f, 
	0xf0, 0x3e, 0xae, 0x3f, 0x84, 0xfa, 0xff, 0xff, 0x88, 0xfa, 0xff, 0xff, 
	0x0f, 0x00, 0x00, 0x00, 0x4d, 0x4c, 0x49, 0x52, 0x20, 0x43, 0x6f, 0x6e, 
	0x76, 0x65, 0x72, 0x74, 0x65, 0x64, 0x2e, 0x00, 0x01, 0x00, 0x00, 0x00, 
	0x14, 0x00, 0x00, 0x00, 0x00, 0x00, 0x0e, 0x00, 0x18, 0x00, 0x14, 0x00, 
	0x10, 0x00, 0x0c, 0x00, 0x08, 0x00, 0x04, 0x00, 0x0e, 0x00, 0x00, 0x00, 
	0x14, 0x00, 0x00, 0x00, 0x1c, 0x00, 0x00, 0x00, 0x08, 0x01, 0x00, 0x00, 
	0x0c, 0x01, 0x00, 0x00, 0x10, 0x01, 0x00, 0x00, 0x04, 0x00, 0x00, 0x00, 
	0x6d, 0x61, 0x69, 0x6e, 0x00, 0x00, 0x00, 0x00, 0x04, 0x00, 0x00, 0x00, 
	0xb0, 0x00, 0x00, 0x00, 0x68, 0x00, 0x00, 0x00, 0x34, 0x00, 0x00, 0x00, 
	0x10, 0x00, 0x00, 0x00, 0x00, 0x00, 0x0a, 0x00, 0x10, 0x00, 0x0c, 0x00, 
	0x08, 0x00, 0x04, 0x00, 0x0a, 0x00, 0x00, 0x00, 0x0c, 0x00, 0x00, 0x00, 
	0x10, 0x00, 0x00, 0x00, 0x01, 0x00, 0x00, 0x00, 0x01, 0x00, 0x00, 0x00, 
	0x0a, 0x00, 0x00, 0x00, 0x01, 0x00, 0x00, 0x00, 0x09, 0x00, 0x00, 0x00, 
	0x9a, 0xff, 0xff, 0xff, 0x10, 0x00, 0x00, 0x00, 0x00, 0x00, 0x00, 0x08, 
	0x0c, 0x00, 0x00, 0x00, 0x10, 0x00, 0x00, 0x00, 0x30, 0xfb, 0xff, 0xff, 
	0x01, 0x00, 0x00, 0x00, 0x09, 0x00, 0x00, 0x00, 0x03, 0x00, 0x00, 0x00, 
	0x08, 0x00, 0x00, 0x00, 0x01, 0x00, 0x00, 0x00, 0x03, 0x00, 0x00, 0x00, 
	0xca, 0xff, 0xff, 0xff, 0x10, 0x00, 0x00, 0x00, 0x00, 0x00, 0x00, 0x08, 
	0x10, 0x00, 0x00, 0x00, 0x14, 0x00, 0x00, 0x00, 0xba, 0xff, 0xff, 0xff, 
	0x00, 0x00, 0x00, 0x01, 0x01, 0x00, 0x00, 0x00, 0x08, 0x00, 0x00, 0x00, 
	0x03, 0x00, 0x00, 0x00, 0x07, 0x00, 0x00, 0x00, 0x02, 0x00, 0x00, 0x00, 
	0x04, 0x00, 0x00, 0x00, 0x00, 0x00, 0x0e, 0x00, 0x16, 0x00, 0x00, 0x00, 
	0x10, 0x00, 0x0c, 0x00, 0x0b, 0x00, 0x04, 0x00, 0x0e, 0x00, 0x00, 0x00, 
	0x18, 0x00, 0x00, 0x00, 0x00, 0x00, 0x00, 0x08, 0x18, 0x00, 0x00, 0x00, 
	0x1c, 0x00, 0x00, 0x00, 0x00, 0x00, 0x06, 0x00, 0x08, 0x00, 0x07, 0x00, 
	0x06, 0x00, 0x00, 0x00, 0x00, 0x00, 0x00, 0x01, 0x01, 0x00, 0x00, 0x00, 
	0x07, 0x00, 0x00, 0x00, 0x03, 0x00, 0x00, 0x00, 0x00, 0x00, 0x00, 0x00, 
	0x06, 0x00, 0x00, 0x00, 0x05, 0x00, 0x00, 0x00, 0x01, 0x00, 0x00, 0x00, 
	0x0a, 0x00, 0x00, 0x00, 0x01, 0x00, 0x00, 0x00, 0x00, 0x00, 0x00, 0x00, 
	0x0b, 0x00, 0x00, 0x00, 0xf8, 0x03, 0x00, 0x00, 0xa0, 0x03, 0x00, 0x00, 
	0x48, 0x03, 0x00, 0x00, 0x0c, 0x03, 0x00, 0x00, 0xb0, 0x02, 0x00, 0x00, 
	0x58, 0x02, 0x00, 0x00, 0x0c, 0x02, 0x00, 0x00, 0x78, 0x01, 0x00, 0x00, 
	0xdc, 0x00, 0x00, 0x00, 0x60, 0x00, 0x00, 0x00, 0x04, 0x00, 0x00, 0x00, 
	0x4a, 0xfc, 0xff, 0xff, 0x00, 0x00, 0x00, 0x01, 0x14, 0x00, 0x00, 0x00, 
	0x1c, 0x00, 0x00, 0x00, 0x1c, 0x00, 0x00, 0x00, 0x0b, 0x00, 0x00, 0x00, 
	0x34, 0x00, 0x00, 0x00, 0x02, 0x00, 0x00, 0x00, 0xff, 0xff, 0xff, 0xff, 
	0x01, 0x00, 0x00, 0x00, 0x34, 0xfc, 0xff, 0xff, 0x1b, 0x00, 0x00, 0x00, 
	0x53, 0x74, 0x61, 0x74, 0x65, 0x66, 0x75, 0x6c, 0x50, 0x61, 0x72, 0x74, 
	0x69, 0x74, 0x69, 0x6f, 0x6e, 0x65, 0x64, 0x43, 0x61, 0x6c, 0x6c, 0x5f, 
	0x31, 0x3a, 0x30, 0x00, 0x02, 0x00, 0x00, 0x00, 0x01, 0x00, 0x00, 0x00, 
	0x01, 0x00, 0x00, 0x00, 0xa2, 0xfc, 0xff, 0xff, 0x00, 0x00, 0x00, 0x01, 
	0x14, 0x00, 0x00, 0x00, 0x1c, 0x00, 0x00, 0x00, 0x1c, 0x00, 0x00, 0x00, 
	0x0a, 0x00, 0x00, 0x00, 0x54, 0x00, 0x00, 0x00, 0x02, 0x00, 0x00, 0x00, 
	0xff, 0xff, 0xff, 0xff, 0x01, 0x00, 0x00, 0x00, 0x8c, 0xfc, 0xff, 0xff, 
	0x38, 0x00, 0x00, 0x00, 0x73, 0x65, 0x71, 0x75, 0x65, 0x6e, 0x74, 0x69, 
	0x61, 0x6c, 0x5f, 0x31, 0x2f, 0x64, 0x65, 0x6e, 0x73, 0x65, 0x5f, 0x32, 
	0x5f, 0x31, 0x2f, 0x4d, 0x61, 0x74, 0x4d, 0x75, 0x6c, 0x3b, 0x73, 0x65, 
	0x71, 0x75, 0x65, 0x6e, 0x74, 0x69, 0x61, 0x6c, 0x5f, 0x31, 0x2f, 0x64, 
	0x65, 0x6e, 0x73, 0x65, 0x5f, 0x32, 0x5f, 0x31, 0x2f, 0x41, 0x64, 0x64, 
	0x00, 0x00, 0x00, 0x00, 0x02, 0x00, 0x00, 0x00, 0x01, 0x00, 0x00, 0x00, 
	0x01, 0x00, 0x00, 0x00, 0x1a, 0xfd, 0xff, 0xff, 0x00, 0x00, 0x00, 0x01, 
	0x14, 0x00, 0x00, 0x00, 0x1c, 0x00, 0x00, 0x00, 0x1c, 0x00, 0x00, 0x00, 
	0x09, 0x00, 0x00, 0x00, 0x74, 0x00, 0x00, 0x00, 0x02, 0x00, 0x00, 0x00, 
	0xff, 0xff, 0xff, 0xff, 0x20, 0x00, 0x00, 0x00, 0x04, 0xfd, 0xff, 0xff, 
	0x58, 0x00, 0x00, 0x00, 0x73, 0x65, 0x71, 0x75, 0x65, 0x6e, 0x74, 0x69, 
	0x61, 0x6c, 0x5f, 0x31, 0x2f, 0x64, 0x65, 0x6e, 0x73, 0x65, 0x5f, 0x31, 
	0x5f, 0x32, 0x2f, 0x4d, 0x61, 0x74, 0x4d, 0x75, 0x6c, 0x3b, 0x73, 0x65, 
	0x71, 0x75, 0x65, 0x6e, 0x74, 0x69, 0x61, 0x6c, 0x5f, 0x31, 0x2f, 0x64, 
	0x65, 0x6e, 0x73, 0x65, 0x5f, 0x31, 0x5f, 0x32, 0x2f, 0x52, 0x65, 0x6c, 
	0x75, 0x3b, 0x73, 0x65, 0x71, 0x75, 0x65, 0x6e, 0x74, 0x69, 0x61, 0x6c, 
	0x5f, 0x31, 0x2f, 0x64, 0x65, 0x6e, 0x73, 0x65, 0x5f, 0x31, 0x5f, 0x32, 
	0x2f, 0x42, 0x69, 0x61, 0x73, 0x41, 0x64, 0x64, 0x00, 0x00, 0x00, 0x00, 
	0x02, 0x00, 0x00, 0x00, 0x01, 0x00, 0x00, 0x00, 0x20, 0x00, 0x00, 0x00, 
	0xb2, 0xfd, 0xff, 0xff, 0x00, 0x00, 0x00, 0x01, 0x14, 0x00, 0x00, 0x00, 
	0x1c, 0x00, 0x00, 0x00, 0x1c, 0x00, 0x00, 0x00, 0x08, 0x00, 0x00, 0x00, 
	0x6c, 0x00, 0x00, 0x00, 0x02, 0x00, 0x00, 0x00, 0xff, 0xff, 0xff, 0xff, 
	0x40, 0x00, 0x00, 0x00, 0x9c, 0xfd, 0xff, 0xff, 0x52, 0x00, 0x00, 0x00, 
	0x73, 0x65, 0x71, 0x75, 0x65, 0x6e, 0x74, 0x69, 0x61, 0x6c, 0x5f, 0x31, 
	0x2f, 0x64, 0x65, 0x6e, 0x73, 0x65, 0x5f, 0x31, 0x2f, 0x4d, 0x61, 0x74, 
	0x4d, 0x75, 0x6c, 0x3b, 0x73, 0x65, 0x71, 0x75, 0x65, 0x6e, 0x74, 0x69, 
	0x61, 0x6c, 0x5f, 0x31, 0x2f, 0x64, 0x65, 0x6e, 0x73, 0x65, 0x5f, 0x31, 
	0x2f, 0x52, 0x65, 0x6c, 0x75, 0x3b, 0x73, 0x65, 0x71, 0x75, 0x65, 0x6e, 
	0x74, 0x69, 0x61, 0x6c, 0x5f, 0x31, 0x2f, 0x64, 0x65, 0x6e, 0x73, 0x65, 
	0x5f, 0x31, 0x2f, 0x42, 0x69, 0x61, 0x73, 0x41, 0x64, 0x64, 0x00, 0x00, 
	0x02, 0x00, 0x00, 0x00, 0x01, 0x00, 0x00, 0x00, 0x40, 0x00, 0x00, 0x00, 
	0x96, 0xfe, 0xff, 0xff, 0x00, 0x00, 0x00, 0x01, 0x10, 0x00, 0x00, 0x00, 
	0x10, 0x00, 0x00, 0x00, 0x07, 0x00, 0x00, 0x00, 0x28, 0x00, 0x00, 0x00, 
	0x1c, 0xfe, 0xff, 0xff, 0x1b, 0x00, 0x00, 0x00, 0x73, 0x65, 0x71, 0x75, 
	0x65, 0x6e, 0x74, 0x69, 0x61, 0x6c, 0x5f, 0x31, 0x2f, 0x64, 0x65, 0x6e, 
	0x73, 0x65, 0x5f, 0x31, 0x2f, 0x4d, 0x61, 0x74, 0x4d, 0x75, 0x6c, 0x00, 
	0x02, 0x00, 0x00, 0x00, 0x40, 0x00, 0x00, 0x00, 0x0c, 0x00, 0x00, 0x00, 
	0xde, 0xfe, 0xff, 0xff, 0x00, 0x00, 0x00, 0x01, 0x10, 0x00, 0x00, 0x00, 
	0x10, 0x00, 0x00, 0x00, 0x06, 0x00, 0x00, 0x00, 0x38, 0x00, 0x00, 0x00, 
	0x64, 0xfe, 0xff, 0xff, 0x2b, 0x00, 0x00, 0x00, 0x73, 0x65, 0x71, 0x75, 
	0x65, 0x6e, 0x74, 0x69, 0x61, 0x6c, 0x5f, 0x31, 0x2f, 0x64, 0x65, 0x6e, 
	0x73, 0x65, 0x5f, 0x31, 0x2f, 0x42, 0x69, 0x61, 0x73, 0x41, 0x64, 0x64, 
	0x2f, 0x52, 0x65, 0x61, 0x64, 0x56, 0x61, 0x72, 0x69, 0x61, 0x62, 0x6c, 
	0x65, 0x4f, 0x70, 0x00, 0x01, 0x00, 0x00, 0x00, 0x40, 0x00, 0x00, 0x00, 
	0x32, 0xff, 0xff, 0xff, 0x00, 0x00, 0x00, 0x01, 0x10, 0x00, 0x00, 0x00, 
	0x10, 0x00, 0x00, 0x00, 0x05, 0x00, 0x00, 0x00, 0x3c, 0x00, 0x00, 0x00, 
	0xb8, 0xfe, 0xff, 0xff, 0x2d, 0x00, 0x00, 0x00, 0x73, 0x65, 0x71, 0x75, 
	0x65, 0x6e, 0x74, 0x69, 0x61, 0x6c, 0x5f, 0x31, 0x2f, 0x64, 0x65, 0x6e, 
	0x73, 0x65, 0x5f, 0x31, 0x5f, 0x32, 0x2f, 0x42, 0x69, 0x61, 0x73, 0x41, 
	0x64, 0x64, 0x2f, 0x52, 0x65, 0x61, 0x64, 0x56, 0x61, 0x72, 0x69, 0x61, 
	0x62, 0x6c, 0x65, 0x4f, 0x70, 0x00, 0x00, 0x00, 0x01, 0x00, 0x00, 0x00, 
	0x20, 0x00, 0x00, 0x00, 0x8a, 0xff, 0xff, 0xff, 0x00, 0x00, 0x00, 0x01, 
	0x10, 0x00, 0x00, 0x00, 0x10, 0x00, 0x00, 0x00, 0x04, 0x00, 0x00, 0x00, 
	0x1c, 0x00, 0x00, 0x00, 0x10, 0xff, 0xff, 0xff, 0x0f, 0x00, 0x00, 0x00, 
	0x61, 0x72, 0x69, 0x74, 0x68, 0x2e, 0x63, 0x6f, 0x6e, 0x73, 0x74, 0x61, 
	0x6e, 0x74, 0x32, 0x00, 0x01, 0x00, 0x00, 0x00, 0x01, 0x00, 0x00, 0x00, 
	0xc2, 0xff, 0xff, 0xff, 0x00, 0x00, 0x00, 0x01, 0x10, 0x00, 0x00, 0x00, 
	0x10, 0x00, 0x00, 0x00, 0x03, 0x00, 0x00, 0x00, 0x1c, 0x00, 0x00, 0x00, 
	0x48, 0xff, 0xff, 0xff, 0x0f, 0x00, 0x00, 0x00, 0x61, 0x72, 0x69, 0x74, 
	0x68, 0x2e, 0x63, 0x6f, 0x6e, 0x73, 0x74, 0x61, 0x6e, 0x74, 0x31, 0x00, 
	0x02, 0x00, 0x00, 0x00, 0x20, 0x00, 0x00, 0x00, 0x40, 0x00, 0x00, 0x00, 
	0x00, 0x00, 0x16, 0x00, 0x18, 0x00, 0x14, 0x00, 0x00, 0x00, 0x10, 0x00, 
	0x0c, 0x00, 0x08, 0x00, 0x00, 0x00, 0x00, 0x00, 0x00, 0x00, 0x07, 0x00, 
	0x16, 0x00, 0x00, 0x00, 0x00, 0x00, 0x00, 0x01, 0x10, 0x00, 0x00, 0x00, 
	0x10, 0x00, 0x00, 0x00, 0x02, 0x00, 0x00, 0x00, 0x1c, 0x00, 0x00, 0x00, 
	0x9c, 0xff, 0xff, 0xff, 0x0e, 0x00, 0x00, 0x00, 0x61, 0x72, 0x69, 0x74, 
	0x68, 0x2e, 0x63, 0x6f, 0x6e, 0x73, 0x74, 0x61, 0x6e, 0x74, 0x00, 0x00, 
	0x02, 0x00, 0x00, 0x00, 0x01, 0x00, 0x00, 0x00, 0x20, 0x00, 0x00, 0x00, 
	0x00, 0x00, 0x16, 0x00, 0x1c, 0x00, 0x18, 0x00, 0x00, 0x00, 0x14, 0x00, 
	0x10, 0x00, 0x0c, 0x00, 0x00, 0x00, 0x00, 0x00, 0x08, 0x00, 0x07, 0x00, 
	0x16, 0x00, 0x00, 0x00, 0x00, 0x00, 0x00, 0x01, 0x14, 0x00, 0x00, 0x00, 
	0x20, 0x00, 0x00, 0x00, 0x20, 0x00, 0x00, 0x00, 0x01, 0x00, 0x00, 0x00, 
	0x3c, 0x00, 0x00, 0x00, 0x02, 0x00, 0x00, 0x00, 0xff, 0xff, 0xff, 0xff, 
	0x0c, 0x00, 0x00, 0x00, 0x04, 0x00, 0x04, 0x00, 0x04, 0x00, 0x00, 0x00, 
	0x1e, 0x00, 0x00, 0x00, 0x73, 0x65, 0x72, 0x76, 0x69, 0x6e, 0x67, 0x5f, 
	0x64, 0x65, 0x66, 0x61, 0x75, 0x6c, 0x74, 0x5f, 0x6b, 0x65, 0x72, 0x61, 
	0x73, 0x5f, 0x74, 0x65, 0x6e, 0x73, 0x6f, 0x72, 0x3a, 0x30, 0x00, 0x00, 
	0x02, 0x00, 0x00, 0x00, 0x01, 0x00, 0x00, 0x00, 0x0c, 0x00, 0x00, 0x00, 
	0x02, 0x00, 0x00, 0x00, 0x20, 0x00, 0x00, 0x00, 0x04, 0x00, 0x00, 0x00, 
	0xf4, 0xff, 0xff, 0xff, 0x0e, 0x00, 0x00, 0x00, 0x00, 0x00, 0x00, 0x0e, 
	0x0c, 0x00, 0x0c, 0x00, 0x0b, 0x00, 0x00, 0x00, 0x00, 0x00, 0x04, 0x00, 
	0x0c, 0x00, 0x00, 0x00, 0x09, 0x00, 0x00, 0x00, 0x00, 0x00, 0x00, 0x09
};
const int Posture_Model_len = sizeof(Posture_Model);